unsigned char g_model[] = {
    0x1c, 0x00, 0x00, 0x00, 0x54, 0x46, 0x4c, 0x33, 0x14, 0x00, 0x20, 0x00,
    0x1c, 0x00, 0x18, 0x00, 0x14, 0x00, 0x10, 0x00, 0x0c, 0x00, 0x00, 0x00,
    0x08, 0x00, 0x04, 0x00, 0x14, 0x00, 0x00, 0x00, 0x1c, 0x00, 0x00, 0x00,
    0x90, 0x00, 0x00, 0x00, 0xe8, 0x00, 0x00, 0x00, 0xe8, 0x11, 0x00, 0x00,
    0xf8, 0x11, 0x00, 0x00, 0x04, 0x15, 0x00, 0x00, 0x03, 0x00, 0x00, 0x00,
    0x01, 0x00, 0x00, 0x00, 0x10, 0x00, 0x00, 0x00, 0x00, 0x00, 0x0a, 0x00,
    0x10, 0x00, 0x0c, 0x00, 0x08, 0x00, 0x04, 0x00, 0x0a, 0x00, 0x00, 0x00,
    0x0c, 0x00, 0x00, 0x00, 0x1c, 0x00, 0x00, 0x00, 0x38, 0x00, 0x00, 0x00,
    0x0f, 0x00, 0x00, 0x00, 0x73, 0x65, 0x72, 0x76, 0x69, 0x6e, 0x67, 0x5f,
    0x64, 0x65, 0x66, 0x61, 0x75, 0x6c, 0x74, 0x00, 0x01, 0x00, 0x00, 0x00,
    0x04, 0x00, 0x00, 0x00, 0x98, 0xff, 0xff, 0xff, 0x05, 0x00, 0x00, 0x00,
    0x04, 0x00, 0x00, 0x00, 0x07, 0x00, 0x00, 0x00, 0x64, 0x65, 0x6e, 0x73,
    0x65, 0x5f, 0x31, 0x00, 0x01, 0x00, 0x00, 0x00, 0x04, 0x00, 0x00, 0x00,
    0xa6, 0xee, 0xff, 0xff, 0x04, 0x00, 0x00, 0x00, 0x0b, 0x00, 0x00, 0x00,
    0x64, 0x65, 0x6e, 0x73, 0x65, 0x5f, 0x69, 0x6e, 0x70, 0x75, 0x74, 0x00,
    0x02, 0x00, 0x00, 0x00, 0x34, 0x00, 0x00, 0x00, 0x04, 0x00, 0x00, 0x00,
    0xdc, 0xff, 0xff, 0xff, 0x08, 0x00, 0x00, 0x00, 0x04, 0x00, 0x00, 0x00,
    0x13, 0x00, 0x00, 0x00, 0x43, 0x4f, 0x4e, 0x56, 0x45, 0x52, 0x53, 0x49,
    0x4f, 0x4e, 0x5f, 0x4d, 0x45, 0x54, 0x41, 0x44, 0x41, 0x54, 0x41, 0x00,
    0x08, 0x00, 0x0c, 0x00, 0x08, 0x00, 0x04, 0x00, 0x08, 0x00, 0x00, 0x00,
    0x07, 0x00, 0x00, 0x00, 0x04, 0x00, 0x00, 0x00, 0x13, 0x00, 0x00, 0x00,
    0x6d, 0x69, 0x6e, 0x5f, 0x72, 0x75, 0x6e, 0x74, 0x69, 0x6d, 0x65, 0x5f,
    0x76, 0x65, 0x72, 0x73, 0x69, 0x6f, 0x6e, 0x00, 0x09, 0x00, 0x00, 0x00,
    0xfc, 0x10, 0x00, 0x00, 0xf4, 0x10, 0x00, 0x00, 0xe0, 0x10, 0x00, 0x00,
    0xb8, 0x00, 0x00, 0x00, 0x98, 0x00, 0x00, 0x00, 0x90, 0x00, 0x00, 0x00,
    0x88, 0x00, 0x00, 0x00, 0x68, 0x00, 0x00, 0x00, 0x04, 0x00, 0x00, 0x00,
    0x42, 0xef, 0xff, 0xff, 0x04, 0x00, 0x00, 0x00, 0x54, 0x00, 0x00, 0x00,
    0x0c, 0x00, 0x00, 0x00, 0x08, 0x00, 0x0e, 0x00, 0x08, 0x00, 0x04, 0x00,
    0x08, 0x00, 0x00, 0x00, 0x10, 0x00, 0x00, 0x00, 0x24, 0x00, 0x00, 0x00,
    0x00, 0x00, 0x06, 0x00, 0x08, 0x00, 0x04, 0x00, 0x06, 0x00, 0x00, 0x00,
    0x04, 0x00, 0x00, 0x00, 0x00, 0x00, 0x00, 0x00, 0x00, 0x00, 0x0a, 0x00,
    0x10, 0x00, 0x0c, 0x00, 0x08, 0x00, 0x04, 0x00, 0x0a, 0x00, 0x00, 0x00,
    0x01, 0x00, 0x00, 0x00, 0x02, 0x00, 0x00, 0x00, 0x04, 0x00, 0x00, 0x00,
    0x06, 0x00, 0x00, 0x00, 0x32, 0x2e, 0x31, 0x33, 0x2e, 0x30, 0x00, 0x00,
    0xa2, 0xef, 0xff, 0xff, 0x04, 0x00, 0x00, 0x00, 0x10, 0x00, 0x00, 0x00,
    0x31, 0x2e, 0x35, 0x2e, 0x30, 0x00, 0x00, 0x00, 0x00, 0x00, 0x00, 0x00,
    0x00, 0x00, 0x00, 0x00, 0xb4, 0xec, 0xff, 0xff, 0xb8, 0xec, 0xff, 0xff,
    0xc6, 0xef, 0xff, 0xff, 0x04, 0x00, 0x00, 0x00, 0x10, 0x00, 0x00, 0x00,
    0x9f, 0xc5, 0x9a, 0x3e, 0xcd, 0x22, 0x7d, 0xbe, 0x50, 0xa2, 0xd2, 0x3e,
    0x56, 0xf2, 0x15, 0x3e, 0xe2, 0xef, 0xff, 0xff, 0x04, 0x00, 0x00, 0x00,
    0x10, 0x10, 0x00, 0x00, 0x59, 0xd4, 0x6f, 0xbd, 0x5c, 0x23, 0xe5, 0xbd,
    0x91, 0x93, 0xed, 0xbd, 0xb2, 0xc2, 0xbb, 0x3d, 0xdf, 0x4d, 0xcb, 0x3d,
    0x53, 0x77, 0xdf, 0xbc, 0xeb, 0x40, 0x39, 0xbd, 0x54, 0xac, 0x0f, 0xb8,
    0x47, 0xcc, 0x0f, 0xbd, 0x71, 0x6e, 0x45, 0xbd, 0x7e, 0x56, 0xd2, 0xbd,
    0x15, 0xb8, 0xfd, 0x3c, 0xec, 0xcd, 0x28, 0xbd, 0x96, 0x15, 0x05, 0xbe,
    0x8b, 0x7f, 0xc3, 0xbc, 0x62, 0x1b, 0x25, 0xbc, 0xfe, 0xe2, 0x59, 0x3d,
    0x12, 0x04, 0xd0, 0xbd, 0xc4, 0x12, 0xff, 0xbc, 0x73, 0x41, 0x34, 0xbe,
    0x38, 0x9a, 0x08, 0x3e, 0xb2, 0x86, 0xe6, 0xbd, 0xfe, 0x03, 0x3f, 0xbd,
    0x34, 0xfe, 0x04, 0x3d, 0xae, 0x27, 0xbb, 0xbd, 0x96, 0xbe, 0xce, 0x3d,
    0x8c, 0x69, 0x91, 0xbd, 0xe6, 0x67, 0x93, 0xbd, 0x8c, 0x39, 0xa9, 0x3d,
    0x28, 0xfe, 0x64, 0x3c, 0x19, 0x3d, 0xe1, 0x3d, 0x9a, 0xc7, 0xa9, 0x3c,
    0xa5, 0xb8, 0x85, 0x3c, 0x78, 0x87, 0x93, 0xbd, 0x1b, 0x0a, 0x18, 0x3d,
    0xcd, 0x76, 0x6e, 0xbd, 0x5c, 0xe1, 0x88, 0xbc, 0x20, 0xdc, 0xdb, 0x3d,
    0x80, 0x37, 0xd8, 0x3d, 0x7d, 0xca, 0xa7, 0x3d, 0x00, 0xda, 0xb6, 0x3d,
    0xe1, 0x4e, 0x11, 0x3c, 0x45, 0x4f, 0xa8, 0x3c, 0x49, 0x0c, 0x7a, 0xbd,
    0x7d, 0xc1, 0xf3, 0x3c, 0x38, 0xee, 0x0d, 0x3d, 0x5e, 0x60, 0x5c, 0xbd,
    0x72, 0xfb, 0x0e, 0x3e, 0xcc, 0xc1, 0x47, 0xbd, 0xbd, 0x58, 0xf5, 0x3d,
    0x86, 0x19, 0xab, 0xbd, 0xe1, 0x3f, 0x99, 0x3d, 0xae, 0xca, 0x06, 0x3e,
    0xde, 0x08, 0x0a, 0xbd, 0x11, 0x6c, 0x62, 0xbd, 0x73, 0x5c, 0x9f, 0xbd,
    0x17, 0x38, 0x2c, 0x3d, 0x01, 0xfd, 0x90, 0x3d, 0xdf, 0xb8, 0x1f, 0xbd,
    0x3f, 0x43, 0x47, 0x3d, 0x90, 0xd4, 0x4c, 0xbd, 0xd5, 0x27, 0x2d, 0x3d,
    0x51, 0xd1, 0x55, 0x3d, 0xc3, 0x93, 0x63, 0x3d, 0x08, 0xe8, 0x90, 0xbc,
    0xb5, 0x34, 0x51, 0x3c, 0xbc, 0xcf, 0x1e, 0x3d, 0x4d, 0x1b, 0xdd, 0xbd,
    0x41, 0x47, 0x08, 0xbe, 0xf7, 0x7e, 0x16, 0xbe, 0x16, 0x83, 0x88, 0x3d,
    0x48, 0x16, 0xbe, 0x3d, 0x17, 0xb9, 0xa8, 0xbd, 0xc7, 0x25, 0xc2, 0xbd,
    0x74, 0xf5, 0x1a, 0x3d, 0x06, 0x76, 0x34, 0xbd, 0x38, 0x37, 0x1c, 0x3d,
    0xc7, 0xf2, 0xab, 0xbd, 0xf1, 0x06, 0x27, 0x3c, 0x56, 0x17, 0xee, 0x3c,
    0xb5, 0xb3, 0x4f, 0xbd, 0x81, 0xb2, 0xae, 0x3d, 0x04, 0xfb, 0x2e, 0xbe,
    0xf7, 0x56, 0x1a, 0x3d, 0xb3, 0xec, 0x05, 0x3e, 0xa9, 0x8f, 0xbf, 0x3c,
    0xc2, 0x1b, 0x63, 0x3d, 0x4c, 0x3c, 0x9a, 0x3c, 0x45, 0xbc, 0x03, 0x3d,
    0x28, 0x3b, 0x82, 0x3c, 0x8c, 0xbd, 0x8d, 0xbd, 0x37, 0x42, 0xe5, 0x3d,
    0x80, 0x4c, 0xc8, 0xbd, 0xe4, 0xf5, 0xc5, 0xbd, 0xb2, 0x96, 0x00, 0xbe,
    0x37, 0xc5, 0xc7, 0x3d, 0x58, 0x33, 0x15, 0xbc, 0x20, 0x76, 0x05, 0xbe,
    0xfb, 0xfe, 0x00, 0x3d, 0x79, 0xfe, 0x69, 0x3d, 0xd0, 0x8c, 0xe2, 0xbc,
    0x2e, 0x03, 0xc7, 0xbc, 0xed, 0x56, 0xd8, 0x3d, 0x8c, 0x40, 0x1d, 0x3d,
    0xad, 0xf8, 0x82, 0xbc, 0x15, 0x79, 0x01, 0x3d, 0xf9, 0xd0, 0xd2, 0x3d,
    0x25, 0x45, 0x70, 0x3d, 0x88, 0x26, 0x9e, 0x3d, 0xd9, 0xa8, 0x57, 0x3d,
    0xcc, 0xcd, 0xae, 0x3d, 0x19, 0x7c, 0x08, 0x3e, 0x17, 0xb3, 0x18, 0xbe,
    0x16, 0xba, 0x1b, 0x3d, 0xf6, 0x75, 0xf7, 0xbc, 0x0c, 0x62, 0x37, 0x3d,
    0xb5, 0x8a, 0xf4, 0x3d, 0xc5, 0x25, 0x14, 0xbe, 0x0e, 0x33, 0xd9, 0x3c,
    0xfb, 0xdc, 0xc7, 0x3d, 0x82, 0xcc, 0xb2, 0xbc, 0xb7, 0x23, 0x37, 0x3c,
    0x21, 0xfa, 0x93, 0x3d, 0xf6, 0xc4, 0xb4, 0xbd, 0xc7, 0xa5, 0x33, 0xbd,
    0x2a, 0x7f, 0x51, 0x3d, 0xa0, 0x86, 0xc6, 0x3d, 0x72, 0xbc, 0xc8, 0x3d,
    0x41, 0xd4, 0x07, 0x3e, 0x31, 0xdd, 0xcf, 0xbd, 0x11, 0xcb, 0x69, 0xbc,
    0x67, 0x84, 0x52, 0xbd, 0x61, 0x28, 0xb7, 0x3d, 0xad, 0x7b, 0xe9, 0xbd,
    0x6d, 0xca, 0x80, 0xbd, 0xd8, 0x7b, 0x97, 0x3d, 0x53, 0x88, 0x35, 0x3d,
    0x4f, 0x64, 0x07, 0xbe, 0x0d, 0x98, 0x2a, 0xbe, 0x63, 0xfb, 0x06, 0x3d,
    0xcc, 0xf4, 0xcc, 0xbc, 0xfa, 0xb7, 0x22, 0x3d, 0x78, 0xb1, 0xfe, 0xbc,
    0xe2, 0xfa, 0xf2, 0x3d, 0xd3, 0xb0, 0x60, 0x3d, 0xc2, 0x87, 0x72, 0x3d,
    0x57, 0xbb, 0x90, 0xbd, 0xf8, 0x60, 0x42, 0xbe, 0xb1, 0xd6, 0x2d, 0xbe,
    0x54, 0xd3, 0x1e, 0x3d, 0x40, 0xad, 0x5f, 0x3c, 0x96, 0xd0, 0xf3, 0x3c,
    0x84, 0xf2, 0x34, 0xbe, 0x0a, 0x07, 0x03, 0x3c, 0xad, 0x67, 0x16, 0x3e,
    0x16, 0x1b, 0x8c, 0xbb, 0x08, 0xde, 0xb0, 0x3d, 0x6a, 0x9e, 0xeb, 0x3d,
    0xac, 0x8c, 0x11, 0xbc, 0xbc, 0xf4, 0x24, 0xbd, 0x15, 0x4f, 0xb0, 0x3d,
    0x42, 0x39, 0xa4, 0x3c, 0x63, 0x2a, 0x8c, 0xbd, 0xe9, 0x6b, 0xdf, 0xbd,
    0xd1, 0x04, 0x89, 0x3d, 0x21, 0xe0, 0x68, 0xbd, 0xd9, 0xb2, 0x60, 0x3d,
    0x87, 0xb0, 0xaa, 0x3d, 0x9b, 0x2b, 0xcb, 0x3d, 0xee, 0xf8, 0xc4, 0x3d,
    0x48, 0x8c, 0x02, 0xbd, 0x51, 0x7a, 0x85, 0x3c, 0xe6, 0x07, 0x04, 0x3d,
    0x03, 0x89, 0xb3, 0xbd, 0x14, 0x12, 0xa0, 0x3c, 0x09, 0xba, 0x28, 0xbd,
    0x4b, 0x07, 0x97, 0x3d, 0xd2, 0xea, 0xe2, 0xbd, 0xf4, 0xcf, 0x5a, 0x3b,
    0x4a, 0xd4, 0x12, 0x3e, 0xbd, 0xbc, 0x10, 0xbe, 0x52, 0xd8, 0xb5, 0xbd,
    0x71, 0x52, 0x46, 0x3d, 0x31, 0xa8, 0x4e, 0x3e, 0xfc, 0xf4, 0x08, 0xbe,
    0x10, 0x71, 0x70, 0xbd, 0xf4, 0x48, 0x39, 0x3a, 0xf2, 0xa2, 0xa8, 0xbd,
    0xea, 0xff, 0xb0, 0xbd, 0x8f, 0x20, 0xba, 0xbd, 0x02, 0xb0, 0x9a, 0xbc,
    0x78, 0x36, 0x00, 0x3e, 0x32, 0x85, 0xae, 0x3d, 0xa6, 0xd3, 0x09, 0xbd,
    0x50, 0xbb, 0x16, 0xbc, 0xb1, 0x0e, 0xaa, 0x3d, 0x33, 0xf5, 0x80, 0xbd,
    0xf1, 0x9f, 0xeb, 0xbd, 0x77, 0x96, 0xe8, 0xbd, 0x91, 0xd2, 0xf4, 0x3c,
    0x15, 0x29, 0xe6, 0xbd, 0x1a, 0xff, 0x66, 0x3c, 0x1e, 0xb7, 0x13, 0x3d,
    0x97, 0x56, 0x4e, 0xbd, 0x6a, 0x09, 0x37, 0x3e, 0x30, 0xc5, 0xfb, 0xbd,
    0xc7, 0xcb, 0x40, 0xbd, 0xbb, 0xc5, 0x4a, 0xbc, 0xd1, 0xfd, 0x04, 0x3e,
    0x21, 0x2b, 0xdd, 0x3d, 0xb7, 0xcd, 0x85, 0x3d, 0xeb, 0x1c, 0xa1, 0xbd,
    0xb5, 0x7b, 0xab, 0x3c, 0x99, 0x41, 0xa3, 0xbd, 0x87, 0xbb, 0x3c, 0x3e,
    0xe6, 0x2f, 0x54, 0x3c, 0x23, 0xc8, 0xd5, 0x3c, 0xf2, 0x2b, 0xc0, 0x3d,
    0x53, 0xde, 0xd7, 0x3d, 0x2f, 0xbe, 0x03, 0xbe, 0x84, 0x22, 0x53, 0x3c,
    0x64, 0x82, 0x28, 0xbe, 0xcf, 0x33, 0x54, 0x3c, 0x35, 0xcd, 0xa4, 0x3d,
    0x00, 0x76, 0x10, 0x3e, 0x03, 0x9d, 0x7b, 0x3d, 0x98, 0x48, 0x98, 0x3c,
    0x88, 0x73, 0xd3, 0xbd, 0x54, 0x95, 0xbe, 0xbd, 0x8a, 0xd9, 0x91, 0xbd,
    0x6e, 0xcd, 0xdf, 0x3d, 0x62, 0x8a, 0x89, 0x3d, 0x13, 0x6a, 0x07, 0xbd,
    0xb5, 0x1c, 0x46, 0xbe, 0x4f, 0x87, 0xbc, 0xbd, 0xc5, 0x07, 0xd8, 0xbd,
    0x57, 0xb7, 0xe0, 0x3d, 0x05, 0x2f, 0xdc, 0x3c, 0x3d, 0x38, 0xec, 0x3d,
    0x23, 0xf4, 0x6d, 0xbc, 0x54, 0x70, 0x17, 0x3e, 0xb4, 0xe8, 0x13, 0xbd,
    0x51, 0x70, 0x41, 0xbc, 0x4c, 0x71, 0x75, 0xbd, 0xdf, 0x4e, 0xd4, 0x3c,
    0x88, 0xe8, 0x0f, 0x3e, 0x59, 0x01, 0x7b, 0x3d, 0x7a, 0x2f, 0x89, 0x3d,
    0x57, 0x28, 0xae, 0x3d, 0x00, 0x2b, 0xfb, 0xba, 0xfe, 0xf3, 0x13, 0xbe,
    0x70, 0x07, 0x86, 0xbc, 0xb4, 0x45, 0x14, 0xbd, 0xfc, 0xc7, 0x3b, 0xbd,
    0x5e, 0x76, 0xb0, 0x3c, 0xef, 0xaa, 0x6a, 0xbd, 0x5c, 0x6e, 0x68, 0xbd,
    0x37, 0xbf, 0xd6, 0xbd, 0x79, 0xe2, 0x04, 0x3d, 0x39, 0x9a, 0x83, 0xbd,
    0x87, 0x8a, 0x03, 0xbe, 0x6a, 0x00, 0x33, 0x3c, 0xdc, 0xaa, 0x97, 0x3d,
    0x08, 0x40, 0xb2, 0xbc, 0xf8, 0x3c, 0x12, 0xbc, 0x71, 0xc4, 0x27, 0xbe,
    0x6f, 0xf1, 0x81, 0xbd, 0x7d, 0x2b, 0x51, 0xbd, 0xce, 0xf3, 0xc1, 0x3d,
    0x05, 0xb3, 0xbf, 0xbd, 0x6f, 0x9c, 0xe2, 0x3b, 0x2f, 0xc9, 0x47, 0x3d,
    0xe5, 0xd1, 0x8d, 0xbc, 0x63, 0xa4, 0x3a, 0x3d, 0xa6, 0x54, 0xfb, 0xbd,
    0x7f, 0x20, 0x91, 0x3d, 0x7a, 0x43, 0x9f, 0xbd, 0xc3, 0xd6, 0xc8, 0xbd,
    0xbf, 0xeb, 0xf0, 0x3d, 0xbe, 0xbb, 0x04, 0xbc, 0x07, 0x0c, 0xc3, 0xbd,
    0xca, 0xf7, 0x2e, 0xbd, 0xb1, 0x82, 0x34, 0x3e, 0x0d, 0xbd, 0x4f, 0xbc,
    0xc1, 0x16, 0x68, 0x3d, 0x37, 0x66, 0xac, 0x3c, 0x75, 0xde, 0x94, 0xbd,
    0xe0, 0x1f, 0x3b, 0x3d, 0x41, 0xbb, 0x54, 0xbd, 0xf0, 0x3d, 0xbc, 0xbd,
    0xa3, 0x4d, 0x96, 0x3c, 0x17, 0xc5, 0x00, 0xbe, 0x98, 0xd9, 0x20, 0xbd,
    0x82, 0x32, 0x9d, 0xbd, 0x2f, 0xbe, 0x4d, 0xbd, 0x81, 0x45, 0x14, 0xb9,
    0x5f, 0x9a, 0x19, 0x3e, 0x40, 0x34, 0x49, 0x3b, 0xf8, 0x47, 0xb4, 0xbb,
    0xa2, 0xc7, 0x41, 0xbd, 0x99, 0x0f, 0x6d, 0xbd, 0x6c, 0xff, 0x00, 0x3e,
    0xb6, 0x5b, 0x4a, 0xbd, 0x28, 0xea, 0xac, 0xbd, 0xac, 0xf7, 0x08, 0x3e,
    0x7d, 0x93, 0x46, 0xbe, 0x7b, 0xa6, 0x66, 0xbc, 0x3a, 0x5b, 0x79, 0xbd,
    0x5f, 0xe5, 0x0b, 0x3e, 0xb2, 0x9c, 0xdd, 0x3d, 0x93, 0xa3, 0xc8, 0xbd,
    0x4a, 0xae, 0x5b, 0x3d, 0xe0, 0x40, 0x06, 0xbe, 0x93, 0xcc, 0x59, 0x3d,
    0xa7, 0xa8, 0x19, 0xbd, 0xf3, 0xa1, 0xbf, 0xbd, 0x66, 0x5f, 0x87, 0xbc,
    0xc6, 0x57, 0xcc, 0x3d, 0x49, 0x24, 0x8b, 0x3d, 0xdf, 0xd8, 0xa4, 0xbd,
    0x21, 0xb4, 0xd5, 0x3d, 0x29, 0x23, 0xc2, 0xbd, 0x7c, 0xc7, 0xe5, 0x3d,
    0x5c, 0x4c, 0x83, 0x3d, 0x5f, 0x7f, 0x4e, 0x3c, 0xee, 0x88, 0x6e, 0x3c,
    0x63, 0xf6, 0xe7, 0xbd, 0x60, 0xcd, 0xaa, 0x3c, 0x08, 0xc4, 0xe3, 0x3d,
    0x00, 0x79, 0x22, 0xbd, 0xe8, 0xcb, 0xd3, 0x3d, 0xe2, 0x0d, 0x41, 0xbd,
    0xab, 0x61, 0x8d, 0xbd, 0x1c, 0x1d, 0xee, 0xbc, 0xb4, 0xc2, 0x1c, 0xbb,
    0xd5, 0x37, 0x1a, 0xbe, 0x81, 0xd4, 0x08, 0x3e, 0xb5, 0x0b, 0x7f, 0x3d,
    0x64, 0xa9, 0xf8, 0xbd, 0x15, 0x3e, 0x21, 0x3c, 0x2c, 0xdb, 0xe8, 0xbd,
    0xbc, 0x55, 0xeb, 0xbd, 0x87, 0xe5, 0x00, 0xbd, 0xbe, 0x76, 0x55, 0x3d,
    0xbc, 0x1a, 0xcb, 0xbd, 0x0f, 0xc4, 0xfa, 0x3c, 0x58, 0x1b, 0x68, 0xbd,
    0x30, 0xfe, 0x77, 0x3d, 0x86, 0x40, 0x17, 0xbc, 0x05, 0xe0, 0x8a, 0xbd,
    0x69, 0xfb, 0xf6, 0xbd, 0x29, 0x17, 0x81, 0x3d, 0xfc, 0xb9, 0x9d, 0x3d,
    0xa4, 0x5b, 0x7b, 0xbd, 0xcb, 0xc2, 0xe9, 0x3d, 0xc3, 0x5e, 0x35, 0xbd,
    0xf3, 0x37, 0x91, 0xbd, 0x15, 0xdb, 0x3a, 0x3d, 0xb2, 0x21, 0xc5, 0x3d,
    0x53, 0xee, 0x80, 0xbb, 0x04, 0x07, 0x08, 0x3e, 0x2c, 0xa9, 0x79, 0xbd,
    0x44, 0x52, 0x91, 0xbd, 0xc5, 0x35, 0xb0, 0xbd, 0xe5, 0x8f, 0x49, 0x3d,
    0x9f, 0x31, 0xeb, 0x3d, 0x17, 0x94, 0x7c, 0xbd, 0xfa, 0x2d, 0x25, 0x3e,
    0x4b, 0x7f, 0xa0, 0xbd, 0x6f, 0x52, 0xa1, 0x3d, 0xb1, 0xba, 0xb3, 0xbc,
    0xf2, 0x0c, 0x9b, 0x3d, 0xb4, 0x8b, 0xc4, 0x3d, 0xd1, 0x11, 0xfa, 0xbd,
    0x88, 0xcc, 0x81, 0xbd, 0x28, 0xe7, 0x0f, 0x3d, 0x67, 0x4f, 0x22, 0x3e,
    0x15, 0xce, 0xb7, 0xbd, 0x3e, 0xac, 0xb2, 0xbd, 0x35, 0x5d, 0xe7, 0x3d,
    0xb5, 0x0a, 0xfb, 0x3d, 0xd2, 0xff, 0xd6, 0x3d, 0x20, 0x83, 0x21, 0x3e,
    0x4b, 0x57, 0xe3, 0xbd, 0x62, 0x93, 0xc4, 0x3d, 0x39, 0x1f, 0x04, 0xbe,
    0x4f, 0x61, 0x4a, 0xbd, 0x0c, 0xf7, 0xf4, 0x3d, 0x23, 0xaf, 0x9a, 0x3c,
    0x7c, 0xb6, 0x56, 0x3c, 0x78, 0x98, 0x08, 0xbd, 0x55, 0x17, 0xb3, 0xbd,
    0xd0, 0x4c, 0xb9, 0xbc, 0x7e, 0xa7, 0x80, 0x3c, 0xe7, 0x3f, 0xbb, 0xbd,
    0x9d, 0x6a, 0xdc, 0xbd, 0x3d, 0x6c, 0x79, 0x3d, 0xc3, 0x13, 0x22, 0xbc,
    0x12, 0x7e, 0x29, 0x3c, 0x11, 0xfa, 0x2d, 0xbc, 0x7d, 0x6e, 0x04, 0xbe,
    0xa7, 0x8e, 0x07, 0x3e, 0x7c, 0x09, 0x6a, 0xbd, 0xd4, 0x51, 0xe9, 0x3b,
    0xb8, 0x38, 0x94, 0xbd, 0xe7, 0x7e, 0xd3, 0x3d, 0x14, 0x54, 0x8f, 0x3d,
    0x81, 0x9d, 0xb7, 0x3d, 0xae, 0x7f, 0x8f, 0xba, 0x89, 0x12, 0x6e, 0x3c,
    0xf2, 0xcc, 0xef, 0xbd, 0xf8, 0xe9, 0xe1, 0x3d, 0x2c, 0x14, 0x07, 0xbd,
    0x88, 0x5b, 0x0a, 0x3d, 0x5c, 0x1c, 0x23, 0xbe, 0x88, 0x2a, 0x09, 0x3d,
    0xa4, 0x34, 0x74, 0xbd, 0x60, 0xbc, 0x75, 0xbd, 0x9e, 0xf6, 0x97, 0xbc,
    0xdd, 0x8e, 0xa9, 0x3c, 0xca, 0xc0, 0x80, 0xbc, 0x00, 0x78, 0x56, 0xbd,
    0xf7, 0x70, 0xe8, 0xbb, 0x7f, 0xdc, 0xb1, 0x3d, 0x07, 0x04, 0xa5, 0x3d,
    0x6b, 0xd8, 0x97, 0x3d, 0x31, 0x92, 0xc2, 0xbd, 0x9d, 0x28, 0xa1, 0xbd,
    0xfa, 0x02, 0x7e, 0x3d, 0xe5, 0xe3, 0x10, 0xbe, 0xb9, 0x25, 0xb1, 0xbd,
    0x01, 0x12, 0x7c, 0x3c, 0x8f, 0x58, 0x17, 0x3e, 0xeb, 0x5f, 0x06, 0xbe,
    0xe7, 0xbe, 0xad, 0xbd, 0xe3, 0xd5, 0x3e, 0xbd, 0x53, 0x29, 0xf9, 0x3c,
    0x6a, 0xfc, 0x06, 0x3c, 0x53, 0x46, 0xf9, 0xbd, 0xdc, 0x1a, 0x48, 0x3d,
    0x55, 0xf6, 0x2f, 0x3d, 0x46, 0x9d, 0x5b, 0xbd, 0x4a, 0xff, 0xef, 0x3d,
    0xd1, 0xaf, 0x05, 0xbd, 0xf7, 0xdb, 0x27, 0xbe, 0xa6, 0x7e, 0x24, 0x3c,
    0x6f, 0xe9, 0x1d, 0x3d, 0x13, 0x02, 0x20, 0x3d, 0x0c, 0x5b, 0x67, 0xbe,
    0xff, 0x7b, 0xf0, 0xbb, 0xa9, 0xf3, 0xca, 0xbd, 0xbe, 0xb0, 0x98, 0xbd,
    0xa9, 0x20, 0x57, 0xbd, 0x0b, 0xc8, 0x22, 0x3c, 0x53, 0xf7, 0x9a, 0xbd,
    0xa3, 0xf3, 0x71, 0x3b, 0xea, 0x13, 0xf8, 0xbd, 0xe1, 0xcb, 0xdd, 0xbc,
    0xdd, 0xb9, 0x8c, 0x3d, 0x89, 0xc5, 0x1c, 0xbc, 0x1c, 0x5d, 0xce, 0x3d,
    0xcb, 0x7e, 0x71, 0x3d, 0x4e, 0xef, 0xaa, 0xba, 0xe6, 0xc3, 0x04, 0xb8,
    0x5d, 0x6b, 0xe8, 0xbd, 0xb1, 0xe2, 0x5a, 0xbd, 0xb4, 0xbb, 0xd3, 0xbc,
    0xe2, 0xb5, 0xfd, 0xbc, 0xd3, 0xc3, 0xe1, 0xbd, 0xc6, 0xd2, 0xc7, 0x3d,
    0x46, 0x16, 0xaf, 0x3d, 0x81, 0x21, 0xf3, 0x3c, 0xcf, 0xe5, 0x3e, 0xbc,
    0x5a, 0x60, 0xe3, 0xbd, 0x2d, 0x15, 0x6a, 0xbd, 0x6c, 0x6d, 0x0a, 0x3e,
    0xa1, 0xce, 0x25, 0xbb, 0xd7, 0x9d, 0xb1, 0xbd, 0xad, 0x8e, 0xc3, 0x3d,
    0xef, 0xda, 0x3b, 0x3e, 0xbf, 0x58, 0x16, 0x3c, 0x51, 0xeb, 0x55, 0xbc,
    0x74, 0x3f, 0x28, 0xbe, 0x30, 0xeb, 0x87, 0xb9, 0x75, 0x22, 0x5e, 0x3c,
    0x7b, 0x45, 0xf8, 0x3a, 0x36, 0x46, 0xa3, 0xbd, 0xd9, 0x8a, 0xea, 0xbc,
    0x69, 0xd0, 0xf8, 0xbc, 0xd7, 0x2a, 0x09, 0xbe, 0x30, 0x93, 0xbd, 0x3c,
    0x77, 0x98, 0x08, 0x3e, 0xd6, 0x7c, 0xae, 0x3d, 0xb5, 0x43, 0x07, 0x3d,
    0x03, 0x51, 0x23, 0xbd, 0x3b, 0xc5, 0x94, 0xbd, 0x03, 0xee, 0x06, 0xbd,
    0x89, 0x26, 0x8e, 0xbd, 0xdc, 0xc6, 0x77, 0x3c, 0xd7, 0xac, 0xd2, 0xbc,
    0x3d, 0xf7, 0xc2, 0x3c, 0x10, 0x0c, 0xdc, 0x3d, 0xcc, 0x1c, 0x99, 0x3d,
    0xad, 0x9a, 0x98, 0xbc, 0xdd, 0x2d, 0xfe, 0x3d, 0x77, 0xbf, 0x29, 0xbd,
    0x46, 0xc5, 0x06, 0x3e, 0x74, 0xb4, 0x0e, 0x3e, 0xd8, 0x7d, 0x15, 0xbe,
    0xc8, 0xf9, 0xc8, 0x3d, 0x21, 0x0d, 0x13, 0xbe, 0x06, 0x88, 0xfe, 0x3c,
    0xbc, 0x83, 0x0f, 0xbe, 0xaf, 0x4c, 0xa0, 0xbd, 0x52, 0x9d, 0x0a, 0x3e,
    0x11, 0x0e, 0x01, 0x3e, 0xa0, 0x86, 0xaf, 0x3d, 0x25, 0x2f, 0xae, 0x3d,
    0xf9, 0x37, 0x45, 0xbd, 0x7a, 0xee, 0x41, 0x3d, 0x94, 0x8c, 0x0e, 0x3c,
    0x15, 0x39, 0xe8, 0xbd, 0x3f, 0x07, 0x80, 0x3d, 0x18, 0xf8, 0xb5, 0xbd,
    0xb2, 0xdb, 0xa9, 0xbd, 0xef, 0x5e, 0x86, 0xbd, 0x14, 0x74, 0xd4, 0x3d,
    0xf0, 0xb6, 0xc3, 0x3d, 0xe1, 0xf5, 0x67, 0xbd, 0x3f, 0xa8, 0xda, 0x3d,
    0x1f, 0xc4, 0xe0, 0x3d, 0x2e, 0xea, 0x03, 0x3e, 0xf7, 0x37, 0x87, 0x3d,
    0xba, 0x06, 0xc6, 0x3c, 0x6d, 0x79, 0x63, 0x3b, 0xc7, 0xd3, 0x8c, 0xbd,
    0x89, 0x0b, 0x64, 0x3c, 0xa5, 0xae, 0x67, 0xbd, 0x95, 0x1f, 0x1b, 0xbd,
    0x46, 0xd5, 0x25, 0x3d, 0x3c, 0x53, 0xa7, 0x3d, 0xef, 0x9b, 0xbb, 0xbc,
    0x69, 0x68, 0x05, 0x3d, 0xce, 0xc5, 0xa7, 0xbc, 0xae, 0x58, 0x12, 0xbd,
    0xa4, 0x67, 0xdf, 0x3c, 0x23, 0xc7, 0x96, 0xbd, 0x6e, 0x00, 0x26, 0x3d,
    0x77, 0x4f, 0x2a, 0xbd, 0xdd, 0x30, 0x48, 0x3d, 0x5c, 0x23, 0xae, 0xbd,
    0x1e, 0x90, 0x58, 0xbd, 0x56, 0x35, 0xe5, 0x3d, 0x21, 0x2f, 0x01, 0xbd,
    0x55, 0x11, 0x11, 0xbe, 0x2e, 0xd1, 0x5b, 0x3c, 0x66, 0x70, 0x83, 0xbd,
    0xd8, 0x5b, 0x9b, 0xbd, 0x45, 0xd3, 0x13, 0x3d, 0xff, 0xda, 0x15, 0x3d,
    0xd9, 0x1b, 0xb8, 0xbc, 0xc1, 0x71, 0x83, 0xbd, 0x43, 0x82, 0x9d, 0xbd,
    0xba, 0x00, 0xb2, 0xbd, 0xc5, 0x9b, 0x17, 0xbd, 0x94, 0xeb, 0x5e, 0x3d,
    0x84, 0xae, 0xff, 0xbd, 0xfa, 0xdb, 0xbb, 0xbd, 0xcd, 0x16, 0x43, 0xbd,
    0x7d, 0x96, 0x84, 0x3d, 0x36, 0x4b, 0x34, 0xbc, 0xb7, 0x47, 0xd8, 0x3c,
    0x71, 0x04, 0x07, 0xbe, 0x95, 0x0e, 0x72, 0x3d, 0x31, 0xe0, 0xbb, 0x3d,
    0xc3, 0x1c, 0xbf, 0x3d, 0xd0, 0xfb, 0x08, 0xbe, 0x79, 0x89, 0x00, 0x3d,
    0x60, 0x74, 0x38, 0xbc, 0xef, 0xef, 0x07, 0x3e, 0x6c, 0x5c, 0xf4, 0x3c,
    0xfb, 0xb0, 0xdf, 0xbd, 0x48, 0xab, 0xcc, 0x3d, 0x3c, 0x02, 0x6e, 0xbd,
    0x97, 0xe1, 0xc2, 0x3d, 0xa3, 0x1c, 0xcc, 0x3d, 0x63, 0xa5, 0xa5, 0x3d,
    0xf3, 0xb7, 0x9c, 0xbb, 0x3d, 0xbb, 0xef, 0x3d, 0xa0, 0xa9, 0x4e, 0xbc,
    0xc1, 0x93, 0x06, 0x3d, 0xf7, 0x54, 0xab, 0xbc, 0x0f, 0x98, 0x19, 0xbd,
    0xf4, 0xd1, 0xad, 0x3d, 0x0a, 0x1b, 0xb7, 0x3d, 0x06, 0xc7, 0xb0, 0xbd,
    0x42, 0x0e, 0xc3, 0x3d, 0x01, 0x18, 0xc2, 0xbd, 0x47, 0xf2, 0x3b, 0xbd,
    0x31, 0x0d, 0xbf, 0xbd, 0x34, 0xb2, 0xb2, 0xbd, 0xd0, 0x31, 0x0e, 0xbe,
    0x49, 0x27, 0x91, 0xbb, 0x0f, 0xeb, 0xc0, 0xbd, 0x4d, 0xb9, 0x8e, 0xbd,
    0x8d, 0x88, 0xf3, 0x3b, 0xe3, 0x75, 0xd5, 0x3c, 0xdd, 0x73, 0x18, 0xbe,
    0x33, 0xf7, 0xbd, 0x3c, 0x31, 0x91, 0x1e, 0x3e, 0xce, 0x52, 0x4d, 0x3d,
    0xc0, 0xa6, 0x08, 0xbd, 0x75, 0xe5, 0x00, 0x3e, 0xb3, 0x33, 0xa9, 0xbd,
    0x59, 0xba, 0x50, 0x3c, 0xc4, 0x60, 0xbb, 0x3d, 0x1d, 0x49, 0x81, 0x3d,
    0xd4, 0x98, 0x39, 0xbd, 0x20, 0x05, 0x6a, 0xbd, 0x9d, 0x35, 0xef, 0x3d,
    0x21, 0x94, 0x9a, 0xbd, 0xe8, 0xdc, 0x16, 0xbe, 0xf3, 0xb0, 0xab, 0x3d,
    0xea, 0x16, 0x95, 0x3d, 0x99, 0x87, 0x30, 0x3d, 0x23, 0x0e, 0x1e, 0xbe,
    0x0c, 0xe4, 0x49, 0xbd, 0x17, 0x0f, 0x82, 0x3d, 0x22, 0xf8, 0xdd, 0xbd,
    0x5e, 0x08, 0x72, 0x3d, 0x76, 0xd0, 0xa8, 0xbd, 0xfb, 0xde, 0xed, 0xbd,
    0x9b, 0x5a, 0xe2, 0x3d, 0x9f, 0x30, 0xb5, 0xbc, 0x0b, 0x27, 0x7a, 0xbd,
    0x87, 0x8f, 0xf2, 0xbd, 0x97, 0x53, 0xfc, 0xbc, 0x4b, 0xd8, 0x03, 0x3e,
    0x3b, 0xab, 0xc9, 0xbd, 0x0c, 0xb9, 0xb7, 0x3d, 0x19, 0x83, 0x54, 0xbd,
    0x60, 0x1f, 0xd4, 0xbd, 0x12, 0x3c, 0x0f, 0x3e, 0x87, 0x3c, 0x9a, 0xbd,
    0xa6, 0xf0, 0x99, 0xbd, 0xad, 0x9b, 0x9e, 0x3d, 0x71, 0xe1, 0x63, 0x3d,
    0xdb, 0x65, 0xbc, 0xbd, 0x59, 0x03, 0xda, 0x3d, 0x5b, 0x61, 0xb0, 0xbc,
    0x1d, 0x75, 0xa8, 0xbd, 0x3c, 0xc1, 0x40, 0x3d, 0xbb, 0x8b, 0xaa, 0x3d,
    0x82, 0xfd, 0x13, 0xbc, 0xd0, 0x8b, 0x43, 0xbd, 0x30, 0x40, 0x03, 0xbe,
    0x8b, 0xba, 0x20, 0x3e, 0xa6, 0x65, 0x14, 0xbe, 0x28, 0x6b, 0x91, 0x3d,
    0xf2, 0x00, 0x9d, 0x3d, 0x37, 0x58, 0xd4, 0x3d, 0x5a, 0x91, 0xd2, 0x3c,
    0x3c, 0x66, 0x19, 0x38, 0xf1, 0x44, 0x6d, 0x3c, 0x83, 0x13, 0x47, 0x3c,
    0x6c, 0x8e, 0x8c, 0x3d, 0xfc, 0xe2, 0xbf, 0x3d, 0x23, 0x15, 0x04, 0xbe,
    0x85, 0x0b, 0x00, 0x3e, 0x06, 0xc4, 0x3b, 0xbe, 0x72, 0xc4, 0x1f, 0xbe,
    0xf9, 0x1a, 0xfd, 0xbd, 0x16, 0x95, 0x8a, 0xbd, 0xdc, 0x2a, 0x8d, 0xbc,
    0x71, 0xe7, 0xb1, 0x3d, 0x7b, 0x7a, 0x9a, 0x3c, 0xc7, 0x37, 0xdb, 0xbd,
    0x37, 0x8c, 0x03, 0x3e, 0x80, 0x6f, 0x28, 0xbe, 0xe5, 0x8e, 0x97, 0xbc,
    0x62, 0x6a, 0x42, 0x3c, 0x35, 0x7c, 0xab, 0x3d, 0x63, 0x08, 0x12, 0x3c,
    0x44, 0x5b, 0xb4, 0x3d, 0x2d, 0x7b, 0xb2, 0xbd, 0x92, 0x93, 0x98, 0x3d,
    0x49, 0xa0, 0xf5, 0xbd, 0xc0, 0x93, 0x91, 0xbd, 0x12, 0xcd, 0xe8, 0xbd,
    0xbe, 0x1f, 0xa5, 0xbc, 0xf4, 0xfb, 0x83, 0x3c, 0x77, 0xf2, 0xf7, 0x39,
    0x2e, 0x9b, 0xbd, 0x3d, 0x95, 0xd0, 0x65, 0x3c, 0x19, 0x4d, 0xab, 0x3d,
    0xb6, 0xa0, 0x19, 0x3c, 0xf6, 0xe1, 0x60, 0x3d, 0x1d, 0xfd, 0x8f, 0xbd,
    0x75, 0xe5, 0x80, 0x3d, 0x0a, 0x4e, 0x4c, 0xbd, 0xf0, 0x2c, 0xe1, 0x3d,
    0x76, 0x96, 0x5c, 0x3d, 0x29, 0x10, 0xc9, 0xbd, 0x14, 0x39, 0x59, 0x3c,
    0x93, 0x65, 0xcb, 0xbd, 0xe7, 0x24, 0x8d, 0x3d, 0x66, 0xd7, 0x2a, 0x3e,
    0x4d, 0x66, 0xd0, 0x3d, 0x4d, 0x14, 0x8c, 0x3d, 0xec, 0x07, 0x03, 0xbe,
    0x50, 0x4a, 0x91, 0x3d, 0x0b, 0xbb, 0x50, 0x3d, 0xa8, 0xb1, 0x18, 0x3e,
    0x9b, 0x80, 0xbf, 0xbd, 0xb6, 0x89, 0x1f, 0xbe, 0x3e, 0x9b, 0xc7, 0x3b,
    0xa0, 0xb8, 0x8b, 0x3d, 0xf3, 0xbd, 0x66, 0xbd, 0x31, 0xc6, 0x7d, 0xbc,
    0x24, 0x57, 0x9f, 0xbd, 0xf4, 0xfc, 0x1a, 0x3d, 0xef, 0x59, 0xcc, 0xbc,
    0x44, 0xfa, 0x10, 0x3d, 0x0f, 0xde, 0xbf, 0x3d, 0x8d, 0x82, 0xa4, 0xbc,
    0xf3, 0xd0, 0x82, 0xbd, 0xdc, 0xa9, 0xf0, 0x3d, 0x43, 0x6a, 0x29, 0xbe,
    0xeb, 0x43, 0x71, 0x3d, 0x3e, 0x48, 0xad, 0x3d, 0xf1, 0x48, 0x1d, 0xbe,
    0x2f, 0x2f, 0xcd, 0x3d, 0x19, 0xf6, 0x86, 0x3d, 0xa4, 0x51, 0xab, 0xbd,
    0x25, 0xd2, 0x45, 0x3b, 0x3d, 0xe2, 0xfb, 0x3d, 0x12, 0x28, 0x0e, 0xbe,
    0x97, 0x48, 0xbd, 0x3d, 0x4c, 0xa6, 0x8b, 0xbd, 0xb9, 0xb5, 0x48, 0xbc,
    0xb3, 0x4f, 0x1c, 0x3d, 0x42, 0xb1, 0xfc, 0xbc, 0x33, 0x72, 0xb0, 0x3d,
    0x39, 0x53, 0x0f, 0x3e, 0xe2, 0x2c, 0x25, 0xbe, 0x3c, 0x68, 0x81, 0xbd,
    0xd8, 0x18, 0x1e, 0x3d, 0x9a, 0x1d, 0x98, 0x3d, 0x5c, 0x97, 0xdb, 0xbd,
    0x77, 0x82, 0x4e, 0xbd, 0xba, 0x12, 0x05, 0xbe, 0x9b, 0x8a, 0xa7, 0x3d,
    0x1e, 0x48, 0xe9, 0x3c, 0xae, 0x3e, 0x52, 0xbc, 0x4d, 0x50, 0x8f, 0xbd,
    0x8a, 0x78, 0xe1, 0x3d, 0xef, 0xf5, 0x77, 0x3d, 0xc1, 0x7e, 0xf5, 0x3d,
    0xba, 0xfa, 0xd1, 0xba, 0x17, 0xa1, 0xcd, 0xbc, 0xd5, 0xa4, 0x89, 0x3d,
    0xa7, 0x0e, 0x24, 0xbe, 0x01, 0x2a, 0xd7, 0x3d, 0x80, 0x70, 0x58, 0x3c,
    0xf8, 0x39, 0xd9, 0x3c, 0xfe, 0xb4, 0x13, 0x3e, 0x6a, 0xeb, 0x51, 0xbd,
    0xc9, 0x3c, 0x84, 0x3a, 0x67, 0x67, 0x67, 0xbd, 0x24, 0x3b, 0xc5, 0x3b,
    0xc8, 0xcf, 0x1b, 0xbd, 0x5a, 0x9d, 0xe4, 0xbb, 0xef, 0x08, 0x96, 0xbd,
    0x7f, 0x16, 0xae, 0xbd, 0xaf, 0xc1, 0x27, 0x3d, 0x6e, 0x34, 0x53, 0xbb,
    0x9c, 0xec, 0x44, 0xbd, 0x12, 0x78, 0xe4, 0xbd, 0x08, 0x28, 0xd7, 0xbb,
    0x8f, 0x05, 0x28, 0xbd, 0x80, 0xfe, 0xc9, 0x3d, 0xe0, 0x64, 0x83, 0xbd,
    0xf0, 0x40, 0x30, 0x3e, 0xcf, 0x43, 0xdf, 0xbc, 0x17, 0x81, 0x2f, 0x3d,
    0xe2, 0xec, 0x4e, 0x3d, 0xef, 0xe0, 0x26, 0xbe, 0x77, 0x43, 0x42, 0x3c,
    0x6d, 0x55, 0x0e, 0xbe, 0x4d, 0x9d, 0xcb, 0xbd, 0x18, 0x25, 0xe6, 0x3b,
    0x2e, 0x59, 0x86, 0xbd, 0x03, 0x8c, 0x1e, 0x3d, 0x28, 0x9f, 0xb3, 0x3c,
    0xeb, 0x0c, 0xd9, 0x3d, 0xc1, 0x1b, 0xfc, 0x3d, 0x2e, 0x97, 0xa4, 0x3d,
    0xa0, 0xdf, 0x13, 0xbe, 0x62, 0xc8, 0x80, 0xbd, 0x46, 0xbd, 0xea, 0x3c,
    0xc3, 0x53, 0xe7, 0xbc, 0x72, 0x81, 0x2f, 0xbd, 0x4e, 0x54, 0x93, 0x3d,
    0x6b, 0x5b, 0x94, 0xbc, 0x94, 0xfb, 0x2f, 0xbe, 0x4d, 0x45, 0x1b, 0x3d,
    0x6c, 0x3d, 0x65, 0x3d, 0xec, 0xcf, 0x39, 0xbd, 0x5a, 0x15, 0x34, 0x3d,
    0xc0, 0x0a, 0xc3, 0xbd, 0x7b, 0x27, 0x1b, 0xbc, 0x36, 0x0c, 0xb5, 0x3d,
    0xce, 0xbd, 0xda, 0xbd, 0x27, 0xe1, 0xb0, 0xbd, 0xbc, 0xfd, 0x2d, 0x3d,
    0xad, 0xaa, 0x6a, 0xbd, 0x85, 0xeb, 0x3d, 0x3d, 0xc7, 0xcf, 0x09, 0xbe,
    0xe1, 0xac, 0x20, 0x3e, 0x81, 0x8a, 0x12, 0x3e, 0xbc, 0x97, 0xfc, 0x3d,
    0x2e, 0x13, 0x5c, 0xbd, 0xb2, 0x11, 0x56, 0x3c, 0xc5, 0x46, 0xf0, 0x3d,
    0x2a, 0xaf, 0xed, 0x3d, 0x78, 0x8a, 0x18, 0x3e, 0x08, 0xa5, 0x9c, 0xbd,
    0xf7, 0x4f, 0x47, 0x3d, 0x5e, 0xaa, 0xa4, 0xbc, 0x9c, 0xff, 0x0e, 0xbd,
    0xe9, 0x14, 0xad, 0x3d, 0xf0, 0xac, 0x19, 0xbd, 0x2a, 0x29, 0xc1, 0x3d,
    0x5b, 0xcf, 0x0d, 0xbd, 0x14, 0x1b, 0xee, 0x3a, 0x52, 0x68, 0xe8, 0xbc,
    0x3c, 0xa3, 0x01, 0xbe, 0x07, 0x9d, 0xc0, 0x3c, 0x71, 0x18, 0x0c, 0xbe,
    0x63, 0x0e, 0xa1, 0xbd, 0x17, 0xdf, 0xf1, 0x3d, 0x42, 0xf2, 0x08, 0x3d,
    0x9c, 0x74, 0x29, 0xbd, 0xb2, 0xe9, 0x9a, 0xbc, 0x09, 0x9a, 0xd1, 0x3d,
    0xe8, 0xd4, 0x06, 0xbe, 0x91, 0x70, 0xe5, 0x3d, 0x0c, 0xc8, 0xc4, 0x3c,
    0x1a, 0x45, 0xd9, 0xbd, 0xe6, 0x74, 0xdd, 0xbd, 0xb7, 0x9c, 0xd8, 0x3d,
    0x10, 0x92, 0xbe, 0x3d, 0xee, 0xd0, 0x01, 0xbe, 0x98, 0xd6, 0xb1, 0x3c,
    0x48, 0xe8, 0x34, 0xbb, 0xe7, 0x83, 0x0a, 0xbe, 0x5e, 0x63, 0x4e, 0xbc,
    0xa6, 0x74, 0x9e, 0x3d, 0x18, 0xba, 0x08, 0xbe, 0x0e, 0x16, 0xbe, 0x3d,
    0x4b, 0x18, 0x07, 0xbe, 0xdf, 0x1c, 0xbe, 0xbd, 0x1d, 0x80, 0x06, 0x3e,
    0x9c, 0xf1, 0x00, 0x3e, 0x5b, 0x4f, 0xa4, 0x3d, 0xbc, 0x37, 0x60, 0xbc,
    0x2e, 0x64, 0xce, 0x3d, 0x00, 0xb1, 0xdf, 0x3c, 0x2b, 0xae, 0xd4, 0xbd,
    0xe4, 0xac, 0xc0, 0x3d, 0x55, 0x6b, 0xed, 0xbd, 0x18, 0xe6, 0x2a, 0xbe,
    0xcb, 0x89, 0x97, 0x3d, 0xc1, 0xcb, 0x09, 0x3d, 0xf7, 0x23, 0x83, 0xbd,
    0x43, 0x19, 0x26, 0xbd, 0xd2, 0xe6, 0x43, 0x3d, 0xf4, 0xab, 0x0c, 0x3e,
    0x53, 0x4e, 0xcf, 0x3d, 0x3b, 0x4d, 0xdd, 0x3d, 0xfa, 0xf5, 0x00, 0xbe,
    0xa7, 0xf1, 0xba, 0xbd, 0xb0, 0x6d, 0xab, 0x3d, 0x87, 0x15, 0xe1, 0xbd,
    0x8b, 0x1c, 0xb8, 0x3d, 0xcf, 0xdb, 0x0f, 0x3d, 0xa5, 0x6c, 0xdc, 0xbd,
    0x63, 0xdf, 0xda, 0x3d, 0x9e, 0x9c, 0xd1, 0x3d, 0x99, 0xea, 0xd5, 0x3d,
    0x26, 0x09, 0x21, 0xbe, 0x0f, 0x8e, 0x1d, 0x3c, 0x32, 0x61, 0xa6, 0x3d,
    0xaa, 0x76, 0xbd, 0xbd, 0x0a, 0x41, 0x43, 0x3c, 0x8d, 0xa8, 0xfd, 0x3d,
    0x0e, 0x73, 0x3b, 0x3c, 0xb1, 0x77, 0xd6, 0xbd, 0x2d, 0x90, 0x94, 0x3a,
    0x39, 0xb4, 0xdd, 0xbc, 0x28, 0x6d, 0x0b, 0xbe, 0x49, 0x58, 0xc7, 0xbc,
    0x7b, 0xc3, 0x75, 0xbd, 0xcb, 0x1c, 0xdd, 0xbd, 0xaa, 0x06, 0xc7, 0x3d,
    0x5c, 0xdb, 0xd3, 0x3d, 0xf3, 0x12, 0x21, 0x3e, 0x09, 0x2e, 0xbd, 0xbd,
    0x44, 0x3a, 0xc1, 0xbd, 0xae, 0x41, 0xeb, 0xbd, 0x8c, 0x80, 0x02, 0xbe,
    0x97, 0x50, 0xad, 0xbc, 0x36, 0x6b, 0xa6, 0xbd, 0x62, 0x72, 0xc0, 0xbd,
    0x84, 0x33, 0xcf, 0x3d, 0x3a, 0xec, 0x7f, 0x3c, 0x16, 0xf6, 0x8a, 0xbc,
    0x33, 0xf0, 0x4c, 0xbd, 0x40, 0xef, 0xe1, 0x3d, 0xa6, 0xff, 0xb6, 0x3d,
    0xab, 0x84, 0x1c, 0xbe, 0x8c, 0xe4, 0xa6, 0x3d, 0x00, 0xa6, 0x13, 0x3c,
    0x55, 0x6e, 0x21, 0xbe, 0xc4, 0x97, 0x6e, 0xbc, 0x1a, 0xae, 0x13, 0xbd,
    0xe8, 0x0e, 0x05, 0xbd, 0xca, 0x42, 0xc6, 0xbd, 0xf5, 0xe4, 0x2a, 0xbc,
    0xe4, 0xde, 0xdc, 0xbd, 0x6c, 0x9d, 0x54, 0xbd, 0x56, 0xeb, 0x62, 0x3c,
    0xd7, 0x2f, 0x41, 0xbe, 0xdb, 0xa3, 0x48, 0x3d, 0x6c, 0x6c, 0xda, 0x3d,
    0x07, 0x70, 0x36, 0xbc, 0x77, 0x85, 0x1e, 0xbd, 0x76, 0xf7, 0xf6, 0xbd,
    0x58, 0x8f, 0xc1, 0x3b, 0x56, 0x83, 0x2f, 0x3d, 0xf4, 0x2c, 0x9f, 0x3c,
    0xe8, 0x7f, 0xe4, 0xbd, 0xe3, 0x8a, 0x8e, 0x3c, 0x46, 0x98, 0xcd, 0xbc,
    0x8f, 0xe8, 0x1a, 0x3e, 0xc4, 0x18, 0x0f, 0x3d, 0x2d, 0x36, 0xbe, 0xbc,
    0x19, 0x83, 0xc5, 0x3c, 0x95, 0xe3, 0x2f, 0xbe, 0xc5, 0xee, 0x9c, 0x3d,
    0xdd, 0x0c, 0x41, 0x3e, 0xe7, 0xfc, 0x55, 0xbc, 0x40, 0xe3, 0x05, 0x3e,
    0xf2, 0x61, 0x6a, 0x3d, 0xbc, 0xc8, 0x35, 0x3d, 0x27, 0xe8, 0xeb, 0x3d,
    0xfe, 0x10, 0xdc, 0x3d, 0xf6, 0xd6, 0x8e, 0x3c, 0x67, 0x87, 0xb7, 0x3d,
    0x2c, 0xdd, 0xbe, 0x3d, 0x43, 0xa7, 0x51, 0xbc, 0x81, 0xe6, 0xb9, 0xbd,
    0xe5, 0xeb, 0x4c, 0x3d, 0x2f, 0xac, 0x03, 0xbe, 0x62, 0xf8, 0xca, 0xbd,
    0x8d, 0xaa, 0xcf, 0xbd, 0xb7, 0x9f, 0xa0, 0xbd, 0xab, 0xef, 0x1b, 0x3d,
    0xee, 0x7d, 0x08, 0x3e, 0xa2, 0x67, 0xfd, 0xbd, 0x27, 0xdc, 0xc9, 0x3c,
    0xfb, 0xea, 0x2e, 0x3d, 0xf9, 0x1d, 0xa5, 0xbc, 0x63, 0x54, 0xdd, 0xbd,
    0x33, 0xeb, 0xe3, 0xbb, 0xc8, 0x45, 0x6e, 0xbd, 0x0f, 0xf6, 0x17, 0x3e,
    0xcf, 0xd2, 0xca, 0x3d, 0xfa, 0xf0, 0xeb, 0xbd, 0x36, 0x32, 0x00, 0xbd,
    0x98, 0x9f, 0x44, 0x3d, 0x34, 0x94, 0x20, 0x3e, 0xf8, 0x66, 0xca, 0xbd,
    0xee, 0x5f, 0x51, 0xbd, 0xfc, 0x98, 0xc3, 0x3d, 0x57, 0x49, 0x89, 0xbc,
    0x05, 0x54, 0x1f, 0x3d, 0x01, 0x2c, 0x7e, 0x3d, 0xf0, 0x70, 0xdc, 0x3c,
    0xab, 0xaf, 0x93, 0xbd, 0xd9, 0x98, 0xe3, 0x3d, 0x25, 0xf6, 0x13, 0x3d,
    0xc6, 0xd8, 0x9e, 0x3d, 0x88, 0x12, 0x8c, 0xbc, 0xe1, 0xb7, 0x06, 0x3d,
    0xdb, 0x0d, 0x88, 0x3d, 0xef, 0x8f, 0xc7, 0x3d, 0x93, 0x61, 0xee, 0xbc,
    0x48, 0x04, 0xed, 0xbd, 0x25, 0xdb, 0x14, 0xbe, 0x69, 0xa2, 0x9d, 0x3b,
    0x96, 0xc1, 0x87, 0x3d, 0x5a, 0x24, 0xd3, 0xbd, 0x73, 0x17, 0x38, 0x3d,
    0x1c, 0x36, 0xa6, 0xbd, 0xc7, 0x30, 0x0f, 0xbe, 0xbf, 0x43, 0xc3, 0x3d,
    0xb5, 0xaf, 0xed, 0xbb, 0x13, 0x5e, 0x85, 0xbd, 0x7e, 0xca, 0x57, 0x3c,
    0xcb, 0xc7, 0x86, 0xbc, 0xb0, 0x04, 0x09, 0x3c, 0x68, 0x5d, 0x3c, 0xbe,
    0xa2, 0x56, 0x6e, 0xbd, 0xb7, 0xb1, 0xcc, 0xbd, 0x79, 0x1b, 0x17, 0xbc,
    0x5d, 0x39, 0xdf, 0x3d, 0x3b, 0x1d, 0x75, 0x3d, 0x3a, 0xc3, 0xeb, 0xbb,
    0x38, 0xda, 0x0f, 0x3e, 0x13, 0x0d, 0x92, 0xbd, 0xfc, 0x98, 0x12, 0x3e,
    0x68, 0xb3, 0xc8, 0x3c, 0xcc, 0x85, 0xf7, 0xbd, 0xf3, 0x83, 0xa0, 0x3d,
    0x41, 0xa3, 0x64, 0xbd, 0x2f, 0x59, 0x34, 0xbd, 0x7c, 0xe0, 0x77, 0xbd,
    0x00, 0x00, 0x06, 0x00, 0x08, 0x00, 0x04, 0x00, 0x06, 0x00, 0x00, 0x00,
    0x04, 0x00, 0x00, 0x00, 0x04, 0x00, 0x00, 0x00, 0xfb, 0x1d, 0x56, 0x3d,
    0x0c, 0xfd, 0xff, 0xff, 0x10, 0xfd, 0xff, 0xff, 0x0f, 0x00, 0x00, 0x00,
    0x4d, 0x4c, 0x49, 0x52, 0x20, 0x43, 0x6f, 0x6e, 0x76, 0x65, 0x72, 0x74,
    0x65, 0x64, 0x2e, 0x00, 0x01, 0x00, 0x00, 0x00, 0x14, 0x00, 0x00, 0x00,
    0x00, 0x00, 0x0e, 0x00, 0x18, 0x00, 0x14, 0x00, 0x10, 0x00, 0x0c, 0x00,
    0x08, 0x00, 0x04, 0x00, 0x0e, 0x00, 0x00, 0x00, 0x14, 0x00, 0x00, 0x00,
    0x1c, 0x00, 0x00, 0x00, 0x94, 0x00, 0x00, 0x00, 0x98, 0x00, 0x00, 0x00,
    0x9c, 0x00, 0x00, 0x00, 0x04, 0x00, 0x00, 0x00, 0x6d, 0x61, 0x69, 0x6e,
    0x00, 0x00, 0x00, 0x00, 0x02, 0x00, 0x00, 0x00, 0x48, 0x00, 0x00, 0x00,
    0x04, 0x00, 0x00, 0x00, 0xce, 0xff, 0xff, 0xff, 0x10, 0x00, 0x00, 0x00,
    0x00, 0x00, 0x00, 0x08, 0x0c, 0x00, 0x00, 0x00, 0x10, 0x00, 0x00, 0x00,
    0x84, 0xfd, 0xff, 0xff, 0x01, 0x00, 0x00, 0x00, 0x05, 0x00, 0x00, 0x00,
    0x03, 0x00, 0x00, 0x00, 0x04, 0x00, 0x00, 0x00, 0x03, 0x00, 0x00, 0x00,
    0x01, 0x00, 0x00, 0x00, 0x00, 0x00, 0x0e, 0x00, 0x14, 0x00, 0x00, 0x00,
    0x10, 0x00, 0x0c, 0x00, 0x0b, 0x00, 0x04, 0x00, 0x0e, 0x00, 0x00, 0x00,
    0x10, 0x00, 0x00, 0x00, 0x00, 0x00, 0x00, 0x08, 0x0c, 0x00, 0x00, 0x00,
    0x10, 0x00, 0x00, 0x00, 0xc4, 0xfd, 0xff, 0xff, 0x01, 0x00, 0x00, 0x00,
    0x04, 0x00, 0x00, 0x00, 0x03, 0x00, 0x00, 0x00, 0x00, 0x00, 0x00, 0x00,
    0x02, 0x00, 0x00, 0x00, 0xff, 0xff, 0xff, 0xff, 0x01, 0x00, 0x00, 0x00,
    0x05, 0x00, 0x00, 0x00, 0x01, 0x00, 0x00, 0x00, 0x00, 0x00, 0x00, 0x00,
    0x06, 0x00, 0x00, 0x00, 0xe4, 0x01, 0x00, 0x00, 0x68, 0x01, 0x00, 0x00,
    0x08, 0x01, 0x00, 0x00, 0xbc, 0x00, 0x00, 0x00, 0x60, 0x00, 0x00, 0x00,
    0x04, 0x00, 0x00, 0x00, 0x4a, 0xfe, 0xff, 0xff, 0x00, 0x00, 0x00, 0x01,
    0x14, 0x00, 0x00, 0x00, 0x1c, 0x00, 0x00, 0x00, 0x1c, 0x00, 0x00, 0x00,
    0x06, 0x00, 0x00, 0x00, 0x34, 0x00, 0x00, 0x00, 0x02, 0x00, 0x00, 0x00,
    0xff, 0xff, 0xff, 0xff, 0x01, 0x00, 0x00, 0x00, 0x34, 0xfe, 0xff, 0xff,
    0x19, 0x00, 0x00, 0x00, 0x53, 0x74, 0x61, 0x74, 0x65, 0x66, 0x75, 0x6c,
    0x50, 0x61, 0x72, 0x74, 0x69, 0x74, 0x69, 0x6f, 0x6e, 0x65, 0x64, 0x43,
    0x61, 0x6c, 0x6c, 0x3a, 0x30, 0x00, 0x00, 0x00, 0x02, 0x00, 0x00, 0x00,
    0x01, 0x00, 0x00, 0x00, 0x01, 0x00, 0x00, 0x00, 0xa2, 0xfe, 0xff, 0xff,
    0x00, 0x00, 0x00, 0x01, 0x14, 0x00, 0x00, 0x00, 0x1c, 0x00, 0x00, 0x00,
    0x1c, 0x00, 0x00, 0x00, 0x05, 0x00, 0x00, 0x00, 0x34, 0x00, 0x00, 0x00,
    0x02, 0x00, 0x00, 0x00, 0xff, 0xff, 0xff, 0xff, 0x04, 0x00, 0x00, 0x00,
    0x8c, 0xfe, 0xff, 0xff, 0x18, 0x00, 0x00, 0x00, 0x73, 0x65, 0x71, 0x75,
    0x65, 0x6e, 0x74, 0x69, 0x61, 0x6c, 0x2f, 0x64, 0x65, 0x6e, 0x73, 0x65,
    0x2f, 0x4d, 0x61, 0x74, 0x4d, 0x75, 0x6c, 0x32, 0x00, 0x00, 0x00, 0x00,
    0x02, 0x00, 0x00, 0x00, 0x01, 0x00, 0x00, 0x00, 0x04, 0x00, 0x00, 0x00,
    0x72, 0xff, 0xff, 0xff, 0x00, 0x00, 0x00, 0x01, 0x10, 0x00, 0x00, 0x00,
    0x10, 0x00, 0x00, 0x00, 0x04, 0x00, 0x00, 0x00, 0x28, 0x00, 0x00, 0x00,
    0xd4, 0xfe, 0xff, 0xff, 0x19, 0x00, 0x00, 0x00, 0x73, 0x65, 0x71, 0x75,
    0x65, 0x6e, 0x74, 0x69, 0x61, 0x6c, 0x2f, 0x64, 0x65, 0x6e, 0x73, 0x65,
    0x5f, 0x31, 0x2f, 0x4d, 0x61, 0x74, 0x4d, 0x75, 0x6c, 0x00, 0x00, 0x00,
    0x02, 0x00, 0x00, 0x00, 0x01, 0x00, 0x00, 0x00, 0x04, 0x00, 0x00, 0x00,
    0xba, 0xff, 0xff, 0xff, 0x00, 0x00, 0x00, 0x01, 0x10, 0x00, 0x00, 0x00,
    0x10, 0x00, 0x00, 0x00, 0x03, 0x00, 0x00, 0x00, 0x24, 0x00, 0x00, 0x00,
    0x1c, 0xff, 0xff, 0xff, 0x17, 0x00, 0x00, 0x00, 0x73, 0x65, 0x71, 0x75,
    0x65, 0x6e, 0x74, 0x69, 0x61, 0x6c, 0x2f, 0x64, 0x65, 0x6e, 0x73, 0x65,
    0x2f, 0x4d, 0x61, 0x74, 0x4d, 0x75, 0x6c, 0x00, 0x02, 0x00, 0x00, 0x00,
    0x04, 0x00, 0x00, 0x00, 0x01, 0x01, 0x00, 0x00, 0x00, 0x00, 0x16, 0x00,
    0x18, 0x00, 0x14, 0x00, 0x00, 0x00, 0x10, 0x00, 0x0c, 0x00, 0x08, 0x00,
    0x00, 0x00, 0x00, 0x00, 0x00, 0x00, 0x07, 0x00, 0x16, 0x00, 0x00, 0x00,
    0x00, 0x00, 0x00, 0x01, 0x10, 0x00, 0x00, 0x00, 0x10, 0x00, 0x00, 0x00,
    0x02, 0x00, 0x00, 0x00, 0x44, 0x00, 0x00, 0x00, 0x78, 0xff, 0xff, 0xff,
    0x34, 0x00, 0x00, 0x00, 0x73, 0x65, 0x71, 0x75, 0x65, 0x6e, 0x74, 0x69,
    0x61, 0x6c, 0x2f, 0x64, 0x65, 0x6e, 0x73, 0x65, 0x5f, 0x31, 0x2f, 0x4d,
    0x61, 0x74, 0x4d, 0x75, 0x6c, 0x3b, 0x73, 0x65, 0x71, 0x75, 0x65, 0x6e,
    0x74, 0x69, 0x61, 0x6c, 0x2f, 0x64, 0x65, 0x6e, 0x73, 0x65, 0x5f, 0x31,
    0x2f, 0x42, 0x69, 0x61, 0x73, 0x41, 0x64, 0x64, 0x00, 0x00, 0x00, 0x00,
    0x01, 0x00, 0x00, 0x00, 0x01, 0x00, 0x00, 0x00, 0x00, 0x00, 0x16, 0x00,
    0x1c, 0x00, 0x18, 0x00, 0x00, 0x00, 0x14, 0x00, 0x10, 0x00, 0x0c, 0x00,
    0x00, 0x00, 0x00, 0x00, 0x08, 0x00, 0x07, 0x00, 0x16, 0x00, 0x00, 0x00,
    0x00, 0x00, 0x00, 0x01, 0x14, 0x00, 0x00, 0x00, 0x20, 0x00, 0x00, 0x00,
    0x20, 0x00, 0x00, 0x00, 0x01, 0x00, 0x00, 0x00, 0x3c, 0x00, 0x00, 0x00,
    0x02, 0x00, 0x00, 0x00, 0xff, 0xff, 0xff, 0xff, 0x01, 0x01, 0x00, 0x00,
    0x04, 0x00, 0x04, 0x00, 0x04, 0x00, 0x00, 0x00, 0x1d, 0x00, 0x00, 0x00,
    0x73, 0x65, 0x72, 0x76, 0x69, 0x6e, 0x67, 0x5f, 0x64, 0x65, 0x66, 0x61,
    0x75, 0x6c, 0x74, 0x5f, 0x64, 0x65, 0x6e, 0x73, 0x65, 0x5f, 0x69, 0x6e,
    0x70, 0x75, 0x74, 0x3a, 0x30, 0x00, 0x00, 0x00, 0x02, 0x00, 0x00, 0x00,
    0x01, 0x00, 0x00, 0x00, 0x01, 0x01, 0x00, 0x00, 0x01, 0x00, 0x00, 0x00,
    0x10, 0x00, 0x00, 0x00, 0x0c, 0x00, 0x0c, 0x00, 0x0b, 0x00, 0x00, 0x00,
    0x00, 0x00, 0x04, 0x00, 0x0c, 0x00, 0x00, 0x00, 0x09, 0x00, 0x00, 0x00,
    0x00, 0x00, 0x00, 0x09};
unsigned int g_model_len = 5464;