unsigned char g_model[] = {
    0x1c, 0x00, 0x00, 0x00, 0x54, 0x46, 0x4c, 0x33, 0x14, 0x00, 0x20, 0x00,
    0x1c, 0x00, 0x18, 0x00, 0x14, 0x00, 0x10, 0x00, 0x0c, 0x00, 0x00, 0x00,
    0x08, 0x00, 0x04, 0x00, 0x14, 0x00, 0x00, 0x00, 0x1c, 0x00, 0x00, 0x00,
    0x90, 0x00, 0x00, 0x00, 0xe8, 0x00, 0x00, 0x00, 0xe8, 0x8c, 0x00, 0x00,
    0xf8, 0x8c, 0x00, 0x00, 0x54, 0x92, 0x00, 0x00, 0x03, 0x00, 0x00, 0x00,
    0x01, 0x00, 0x00, 0x00, 0x10, 0x00, 0x00, 0x00, 0x00, 0x00, 0x0a, 0x00,
    0x10, 0x00, 0x0c, 0x00, 0x08, 0x00, 0x04, 0x00, 0x0a, 0x00, 0x00, 0x00,
    0x0c, 0x00, 0x00, 0x00, 0x1c, 0x00, 0x00, 0x00, 0x38, 0x00, 0x00, 0x00,
    0x0f, 0x00, 0x00, 0x00, 0x73, 0x65, 0x72, 0x76, 0x69, 0x6e, 0x67, 0x5f,
    0x64, 0x65, 0x66, 0x61, 0x75, 0x6c, 0x74, 0x00, 0x01, 0x00, 0x00, 0x00,
    0x04, 0x00, 0x00, 0x00, 0x98, 0xff, 0xff, 0xff, 0x0a, 0x00, 0x00, 0x00,
    0x04, 0x00, 0x00, 0x00, 0x07, 0x00, 0x00, 0x00, 0x64, 0x65, 0x6e, 0x73,
    0x65, 0x5f, 0x33, 0x00, 0x01, 0x00, 0x00, 0x00, 0x04, 0x00, 0x00, 0x00,
    0xe2, 0x73, 0xff, 0xff, 0x04, 0x00, 0x00, 0x00, 0x0b, 0x00, 0x00, 0x00,
    0x64, 0x65, 0x6e, 0x73, 0x65, 0x5f, 0x69, 0x6e, 0x70, 0x75, 0x74, 0x00,
    0x02, 0x00, 0x00, 0x00, 0x34, 0x00, 0x00, 0x00, 0x04, 0x00, 0x00, 0x00,
    0xdc, 0xff, 0xff, 0xff, 0x0d, 0x00, 0x00, 0x00, 0x04, 0x00, 0x00, 0x00,
    0x13, 0x00, 0x00, 0x00, 0x43, 0x4f, 0x4e, 0x56, 0x45, 0x52, 0x53, 0x49,
    0x4f, 0x4e, 0x5f, 0x4d, 0x45, 0x54, 0x41, 0x44, 0x41, 0x54, 0x41, 0x00,
    0x08, 0x00, 0x0c, 0x00, 0x08, 0x00, 0x04, 0x00, 0x08, 0x00, 0x00, 0x00,
    0x0c, 0x00, 0x00, 0x00, 0x04, 0x00, 0x00, 0x00, 0x13, 0x00, 0x00, 0x00,
    0x6d, 0x69, 0x6e, 0x5f, 0x72, 0x75, 0x6e, 0x74, 0x69, 0x6d, 0x65, 0x5f,
    0x76, 0x65, 0x72, 0x73, 0x69, 0x6f, 0x6e, 0x00, 0x0e, 0x00, 0x00, 0x00,
    0xfc, 0x8b, 0x00, 0x00, 0xf4, 0x8b, 0x00, 0x00, 0xa4, 0x8b, 0x00, 0x00,
    0x88, 0x8b, 0x00, 0x00, 0xf8, 0x0a, 0x00, 0x00, 0xe8, 0x02, 0x00, 0x00,
    0xd8, 0x00, 0x00, 0x00, 0xa8, 0x00, 0x00, 0x00, 0xa0, 0x00, 0x00, 0x00,
    0x98, 0x00, 0x00, 0x00, 0x90, 0x00, 0x00, 0x00, 0x88, 0x00, 0x00, 0x00,
    0x68, 0x00, 0x00, 0x00, 0x04, 0x00, 0x00, 0x00, 0x92, 0x74, 0xff, 0xff,
    0x04, 0x00, 0x00, 0x00, 0x54, 0x00, 0x00, 0x00, 0x0c, 0x00, 0x00, 0x00,
    0x08, 0x00, 0x0e, 0x00, 0x08, 0x00, 0x04, 0x00, 0x08, 0x00, 0x00, 0x00,
    0x10, 0x00, 0x00, 0x00, 0x24, 0x00, 0x00, 0x00, 0x00, 0x00, 0x06, 0x00,
    0x08, 0x00, 0x04, 0x00, 0x06, 0x00, 0x00, 0x00, 0x04, 0x00, 0x00, 0x00,
    0x00, 0x00, 0x00, 0x00, 0x00, 0x00, 0x0a, 0x00, 0x10, 0x00, 0x0c, 0x00,
    0x08, 0x00, 0x04, 0x00, 0x0a, 0x00, 0x00, 0x00, 0x01, 0x00, 0x00, 0x00,
    0x02, 0x00, 0x00, 0x00, 0x04, 0x00, 0x00, 0x00, 0x06, 0x00, 0x00, 0x00,
    0x32, 0x2e, 0x31, 0x33, 0x2e, 0x30, 0x00, 0x00, 0xf2, 0x74, 0xff, 0xff,
    0x04, 0x00, 0x00, 0x00, 0x10, 0x00, 0x00, 0x00, 0x31, 0x2e, 0x35, 0x2e,
    0x30, 0x00, 0x00, 0x00, 0x00, 0x00, 0x00, 0x00, 0x00, 0x00, 0x00, 0x00,
    0x78, 0x6f, 0xff, 0xff, 0x7c, 0x6f, 0xff, 0xff, 0x80, 0x6f, 0xff, 0xff,
    0x84, 0x6f, 0xff, 0xff, 0x1e, 0x75, 0xff, 0xff, 0x04, 0x00, 0x00, 0x00,
    0x20, 0x00, 0x00, 0x00, 0xb3, 0xfa, 0xd8, 0x3d, 0x16, 0x57, 0x13, 0xbf,
    0x25, 0x52, 0x75, 0xbe, 0xa2, 0xd5, 0x91, 0xbe, 0xe2, 0x5e, 0x24, 0x3e,
    0x07, 0x26, 0x45, 0xbd, 0xcf, 0xc0, 0x0d, 0xbf, 0x76, 0x9e, 0xe1, 0xbe,
    0x4a, 0x75, 0xff, 0xff, 0x04, 0x00, 0x00, 0x00, 0x00, 0x02, 0x00, 0x00,
    0xb1, 0x40, 0x79, 0xbb, 0x69, 0xdd, 0x0a, 0xbe, 0xb3, 0xf9, 0x90, 0x3e,
    0x15, 0x0f, 0x36, 0x3e, 0xbc, 0xde, 0xd2, 0x3d, 0x20, 0x52, 0x26, 0x3e,
    0x43, 0xdc, 0xe9, 0x3e, 0x2f, 0x16, 0xea, 0xbe, 0x98, 0x76, 0x3b, 0xbe,
    0x59, 0x20, 0x0a, 0xbe, 0xac, 0xd2, 0xe0, 0xbe, 0x67, 0x2c, 0x2a, 0xbe,
    0x6a, 0x34, 0x39, 0xbe, 0x82, 0x04, 0xd2, 0x3e, 0xba, 0x6a, 0xef, 0xbe,
    0x54, 0xe3, 0xc0, 0x3e, 0x82, 0x71, 0xd9, 0x3d, 0x26, 0x78, 0x6d, 0x3e,
    0xce, 0x41, 0x9f, 0xbd, 0x19, 0x98, 0x25, 0xbd, 0x6f, 0xbc, 0xd7, 0x3e,
    0xb2, 0xc7, 0xe3, 0x3d, 0xd1, 0xfc, 0xae, 0x3e, 0xb7, 0x6e, 0xf0, 0x3e,
    0x98, 0x59, 0xee, 0x3e, 0xfc, 0xae, 0xe3, 0xbe, 0x31, 0xe6, 0x0a, 0xbe,
    0xf5, 0xcb, 0xaa, 0xbe, 0x50, 0x64, 0xaa, 0xbe, 0x12, 0x0d, 0xcd, 0x3e,
    0x41, 0x8e, 0x6a, 0x3d, 0xc0, 0x8d, 0xc7, 0x3e, 0x5a, 0xde, 0x9a, 0xbe,
    0x25, 0x5c, 0x01, 0xbe, 0xfa, 0x62, 0xb3, 0x3d, 0xe4, 0x3d, 0xd8, 0xbe,
    0xa4, 0x3d, 0x9a, 0x3e, 0xed, 0xf0, 0xe7, 0x3e, 0x32, 0x56, 0x80, 0x3e,
    0x49, 0xc6, 0xbe, 0xbe, 0x40, 0xaa, 0x14, 0xbd, 0x54, 0x1c, 0xe2, 0xbc,
    0x3d, 0x6b, 0x8d, 0x3e, 0x5c, 0xca, 0xbd, 0xbe, 0x94, 0x91, 0x22, 0x3e,
    0x70, 0x47, 0xc4, 0xbe, 0x51, 0xc9, 0xaf, 0xbc, 0xc0, 0xf9, 0xbe, 0xbd,
    0xd2, 0x74, 0x9d, 0x3d, 0xf3, 0xa7, 0x9b, 0xbd, 0xb2, 0x87, 0x79, 0xbd,
    0xa8, 0x33, 0x58, 0xbd, 0x35, 0x76, 0xa1, 0xbe, 0xdf, 0x77, 0x03, 0xbe,
    0x73, 0xde, 0xb3, 0x3e, 0x22, 0x3a, 0xb8, 0x3e, 0x24, 0xe5, 0x84, 0xbe,
    0xdc, 0x5c, 0x0c, 0xbe, 0xce, 0xa8, 0x3f, 0xbe, 0x3b, 0x72, 0x15, 0x3c,
    0xda, 0x8c, 0x5c, 0xbe, 0xa7, 0x13, 0x24, 0x3e, 0x14, 0x9a, 0xde, 0x3e,
    0x7c, 0xc0, 0x15, 0x3e, 0x48, 0xaf, 0xcc, 0xbe, 0x69, 0x60, 0x58, 0x3e,
    0x1c, 0x9f, 0x8c, 0xbe, 0x13, 0x7d, 0x44, 0x3d, 0xc7, 0x08, 0x76, 0xbe,
    0x55, 0x7b, 0x25, 0x3e, 0xca, 0xe8, 0xc0, 0xbe, 0xf6, 0x08, 0x83, 0xbd,
    0x42, 0x1c, 0xf4, 0x3e, 0xb1, 0x97, 0x93, 0xbe, 0x1b, 0xc6, 0xf3, 0x3e,
    0xe8, 0x77, 0x46, 0xbe, 0x97, 0xf6, 0x80, 0xbe, 0x76, 0x9f, 0xd4, 0x3e,
    0x77, 0x4e, 0xb0, 0x3e, 0x5b, 0x74, 0xa5, 0x3e, 0x14, 0x9a, 0xcf, 0xbe,
    0x7a, 0x5e, 0xf3, 0xbd, 0x50, 0x93, 0x62, 0xbe, 0x04, 0x2b, 0xd2, 0x3e,
    0x1e, 0xa8, 0xe5, 0x3e, 0xf8, 0x3e, 0xed, 0x3e, 0x72, 0xa4, 0xa0, 0x3e,
    0x5b, 0xa9, 0xe3, 0x3e, 0x39, 0x1c, 0xc6, 0x3e, 0x5d, 0x31, 0xe1, 0xbe,
    0x03, 0xbb, 0x4b, 0xbe, 0x83, 0x76, 0xfe, 0x3e, 0x4b, 0xa6, 0x06, 0x3f,
    0xfd, 0x4a, 0xbd, 0xbe, 0xcf, 0x8d, 0x22, 0xbe, 0xd7, 0xf0, 0xc7, 0x3e,
    0xb9, 0x47, 0x87, 0xbe, 0x08, 0x72, 0x3d, 0xbe, 0xda, 0xe9, 0xbc, 0x3c,
    0x78, 0xf7, 0xc2, 0x3e, 0x62, 0xfe, 0x7d, 0xbc, 0x0a, 0x19, 0xa8, 0xbe,
    0x9c, 0x04, 0xd0, 0xbe, 0xae, 0x89, 0xb0, 0x3c, 0xcf, 0x3a, 0xd4, 0xbe,
    0x9f, 0x94, 0x2f, 0x3d, 0x46, 0x34, 0x88, 0xbe, 0xbf, 0x2e, 0x84, 0x3e,
    0xb2, 0xd6, 0x8f, 0x3e, 0x53, 0x79, 0x50, 0x3d, 0x14, 0x23, 0xcd, 0xbd,
    0x71, 0x7b, 0xba, 0xbe, 0xf5, 0x9f, 0xee, 0x3e, 0x86, 0xab, 0x7b, 0x3e,
    0x90, 0x53, 0xdd, 0x3e, 0x60, 0xfd, 0xab, 0x3e, 0xc1, 0xef, 0x2c, 0xbd,
    0x5c, 0xac, 0x4a, 0x3e, 0x12, 0xf9, 0xc7, 0xbd, 0x75, 0x0b, 0xa5, 0xbe,
    0x9a, 0xfe, 0xc5, 0x3e, 0xac, 0x22, 0xd5, 0xbe, 0x01, 0xa9, 0xe1, 0x3e,
    0xeb, 0xcb, 0xd4, 0x3e, 0xc4, 0x0b, 0xc0, 0xbe, 0xd0, 0x8f, 0x7c, 0xbe,
    0xe7, 0xd7, 0x9b, 0xbd, 0xd9, 0x34, 0xdd, 0x3e, 0x56, 0x77, 0xff, 0xff,
    0x04, 0x00, 0x00, 0x00, 0x00, 0x08, 0x00, 0x00, 0xf1, 0x9c, 0x25, 0x3e,
    0x57, 0x0a, 0xab, 0x3e, 0x01, 0x56, 0x99, 0xbe, 0xbd, 0xdd, 0x7d, 0xbd,
    0x4b, 0xef, 0x49, 0xbe, 0x19, 0xca, 0x42, 0xbe, 0x54, 0x42, 0x45, 0xbe,
    0xd7, 0xcb, 0x3f, 0x3d, 0x73, 0x29, 0x57, 0xbe, 0x4d, 0x3e, 0x29, 0xbe,
    0x4b, 0x86, 0xb1, 0xbe, 0x99, 0x16, 0x2a, 0xbe, 0xad, 0x11, 0x1f, 0x3d,
    0x15, 0x5e, 0x1f, 0xbe, 0xe5, 0x20, 0x0e, 0xbb, 0x3f, 0x18, 0x79, 0xbe,
    0xdf, 0x06, 0x7b, 0xbd, 0x60, 0xac, 0x8c, 0xbd, 0x25, 0x08, 0x12, 0x3d,
    0xaf, 0xd8, 0x84, 0x3e, 0xcd, 0xe2, 0xbc, 0xbe, 0x63, 0x37, 0x8d, 0xbd,
    0x9a, 0xb7, 0x18, 0xbe, 0xa7, 0xf2, 0xd0, 0xbc, 0xe0, 0xbf, 0x8b, 0xbe,
    0xea, 0x83, 0xa4, 0xbe, 0x79, 0x2b, 0x60, 0xbe, 0xf9, 0x44, 0x06, 0xbe,
    0x13, 0xe6, 0xa3, 0x3e, 0x4b, 0x97, 0x8f, 0xbe, 0x7c, 0x8d, 0x15, 0xbd,
    0xb9, 0x19, 0x9e, 0xbe, 0xb9, 0x0e, 0x7c, 0xbe, 0xc4, 0x74, 0x60, 0x3e,
    0x89, 0xe0, 0x86, 0x3b, 0x8b, 0x08, 0x13, 0x3e, 0x56, 0x98, 0x2b, 0xbe,
    0x29, 0x8a, 0xdb, 0xbd, 0xe2, 0x8e, 0x76, 0x3e, 0xe7, 0xb8, 0x33, 0xbb,
    0xb7, 0x3d, 0xa7, 0xbe, 0x86, 0x8c, 0xf5, 0xbd, 0x06, 0xde, 0x2c, 0x3e,
    0xcb, 0xf3, 0x60, 0x3e, 0x8f, 0xe4, 0x04, 0xbd, 0x68, 0xb4, 0xae, 0x3e,
    0xf1, 0x31, 0x03, 0x3e, 0xbc, 0xc3, 0xed, 0x3d, 0x5c, 0x0d, 0x5f, 0x3e,
    0x88, 0x34, 0xf5, 0x3c, 0x4e, 0x6a, 0xaf, 0xbd, 0x97, 0x54, 0xe5, 0xbd,
    0xa7, 0x2f, 0x68, 0x3e, 0x7c, 0xf9, 0xa8, 0xbd, 0x78, 0x1f, 0xc0, 0x3e,
    0x3a, 0xaf, 0xb4, 0xbe, 0xa6, 0x40, 0x35, 0x3d, 0xa1, 0x25, 0x23, 0x3e,
    0x1d, 0xde, 0x2a, 0xbe, 0x2a, 0xb3, 0xc5, 0xbc, 0xc3, 0xca, 0x21, 0xbe,
    0x3e, 0x81, 0x7f, 0xbe, 0xdd, 0xa0, 0xdf, 0x3b, 0x0d, 0x2d, 0xb2, 0x3d,
    0x72, 0x51, 0x87, 0xbe, 0xa7, 0x6a, 0x37, 0x3d, 0x4a, 0xd5, 0x86, 0x3e,
    0x33, 0x77, 0x10, 0x3e, 0xfe, 0xbf, 0x70, 0xbe, 0x5d, 0xe0, 0x87, 0xbe,
    0x4e, 0xb8, 0x4b, 0xbe, 0xce, 0xb0, 0x2a, 0xbe, 0xba, 0xbf, 0xa4, 0xbe,
    0x91, 0x0c, 0x92, 0x3e, 0x0d, 0xf8, 0xa6, 0x3d, 0xed, 0xe2, 0xfd, 0x3d,
    0x17, 0x26, 0x45, 0xbe, 0x43, 0xe8, 0xb0, 0x3e, 0x21, 0xfa, 0x9a, 0xbb,
    0xd6, 0x16, 0x77, 0xbe, 0x8b, 0xf4, 0x87, 0x3e, 0x46, 0xd3, 0x87, 0xbd,
    0x5b, 0x54, 0xb6, 0x3d, 0x82, 0x2e, 0x7d, 0x3d, 0xac, 0x5f, 0x82, 0xbe,
    0x97, 0xeb, 0x34, 0xbe, 0x16, 0xc1, 0x18, 0xbd, 0xee, 0x8f, 0x3e, 0xbe,
    0xa1, 0xc5, 0xb4, 0x3d, 0xb9, 0x22, 0x41, 0xbe, 0x3e, 0xcb, 0x0f, 0xbe,
    0xc0, 0x11, 0x02, 0x3e, 0x6f, 0xdf, 0x90, 0xbe, 0x24, 0xc2, 0x55, 0x3e,
    0x66, 0x10, 0xb0, 0xbe, 0xf7, 0xb2, 0xd1, 0x3d, 0xa7, 0xbe, 0xe5, 0x3a,
    0x3a, 0xf1, 0xf4, 0xbd, 0x8d, 0xa2, 0x35, 0x3e, 0xee, 0x2c, 0xee, 0xbc,
    0xca, 0x82, 0x6e, 0xbe, 0xa1, 0xfa, 0x38, 0xbe, 0x7f, 0xdb, 0x80, 0x3e,
    0x5b, 0x6f, 0xd3, 0xbc, 0xa7, 0x0d, 0x40, 0x3e, 0xf6, 0xdc, 0xef, 0xbb,
    0xb9, 0x96, 0x59, 0x3d, 0xcb, 0xe8, 0xa9, 0xbe, 0xf0, 0x2c, 0xa1, 0xbe,
    0xeb, 0xb4, 0x93, 0x3e, 0x92, 0xd3, 0x3d, 0x3e, 0xb1, 0x07, 0x3f, 0x3d,
    0x21, 0x35, 0x45, 0xbe, 0xda, 0x29, 0x6a, 0x3e, 0xd8, 0x8f, 0x90, 0xbd,
    0x1c, 0x30, 0xd6, 0x3d, 0xac, 0xeb, 0xb2, 0x3d, 0x00, 0x0a, 0x26, 0xbe,
    0x7e, 0xf0, 0xce, 0xbd, 0x84, 0x82, 0xba, 0x3d, 0x40, 0x69, 0x2c, 0x3d,
    0xcf, 0xce, 0x02, 0x3e, 0xd5, 0x57, 0x6d, 0x3e, 0x51, 0x90, 0x90, 0xbe,
    0xd5, 0xb8, 0xe4, 0xbd, 0x70, 0x8a, 0x95, 0xbe, 0x8d, 0x26, 0xac, 0xbe,
    0x1b, 0x92, 0x4c, 0x3e, 0x0c, 0xa4, 0x80, 0x3d, 0xeb, 0xbc, 0xf6, 0xbd,
    0x58, 0xa9, 0xf4, 0xbc, 0xcd, 0x4c, 0xe6, 0xbc, 0x04, 0xe7, 0x0c, 0x3e,
    0xaf, 0x85, 0x90, 0xbe, 0x1e, 0xd5, 0x66, 0xbd, 0x5e, 0xe5, 0x71, 0x3e,
    0x01, 0x58, 0x9d, 0x3e, 0x03, 0x58, 0x96, 0xbe, 0x12, 0xcf, 0x74, 0x3d,
    0x9f, 0x09, 0x02, 0xbd, 0x41, 0x63, 0xba, 0x3d, 0xdf, 0x24, 0x18, 0xbe,
    0x1d, 0xed, 0xda, 0x3d, 0xe7, 0x0f, 0x62, 0xbd, 0xb6, 0x5c, 0xa2, 0xbe,
    0x81, 0x74, 0x77, 0x3e, 0x4d, 0x1c, 0x1d, 0x3e, 0xc9, 0xa9, 0x2e, 0x3e,
    0xf9, 0x8d, 0xcc, 0x3d, 0x09, 0xd1, 0x18, 0x3d, 0xc4, 0x5e, 0x72, 0xbe,
    0x17, 0xb2, 0x80, 0x3b, 0x87, 0x83, 0xf1, 0xbd, 0xda, 0x11, 0xa3, 0xbd,
    0x66, 0x6a, 0x65, 0xbe, 0xbe, 0xc1, 0x9e, 0xbe, 0x7e, 0xe5, 0x68, 0xbe,
    0x1f, 0xf4, 0xe5, 0xbd, 0x26, 0x0f, 0x83, 0x3e, 0xff, 0x17, 0x22, 0xbd,
    0x05, 0x3d, 0x65, 0x3e, 0x1e, 0x72, 0x7f, 0x3d, 0x2d, 0xd6, 0x86, 0xbe,
    0x89, 0xec, 0xc3, 0xbd, 0x71, 0xde, 0xa4, 0xbe, 0x7a, 0xba, 0xe6, 0xbd,
    0xcb, 0x0c, 0xc2, 0x3c, 0x22, 0xfa, 0x38, 0xbe, 0x13, 0xee, 0x2c, 0xbd,
    0x36, 0xb9, 0x8f, 0x3e, 0x7e, 0x0f, 0xaa, 0x3e, 0xdf, 0xe2, 0x34, 0xbe,
    0xe4, 0x9e, 0x9b, 0x3e, 0x6d, 0x1d, 0x22, 0x3e, 0xde, 0x90, 0x51, 0xbe,
    0xe0, 0xa9, 0x44, 0x3e, 0x2d, 0x25, 0x43, 0x3e, 0xb2, 0xe5, 0x3b, 0xbe,
    0x14, 0xaa, 0x3b, 0xbe, 0x8e, 0x80, 0x01, 0xbe, 0x53, 0x7d, 0xbe, 0xbe,
    0x17, 0x66, 0x10, 0x3e, 0x99, 0x6f, 0x0e, 0xbe, 0x3b, 0xbe, 0x43, 0x3e,
    0xfa, 0x39, 0x67, 0x3e, 0xb0, 0x5c, 0x1f, 0xbd, 0x9a, 0x7d, 0x6b, 0xbd,
    0xdb, 0xeb, 0xb4, 0x3e, 0x03, 0xea, 0x50, 0xbe, 0x54, 0x4c, 0x6e, 0xbe,
    0x46, 0xf1, 0x6a, 0x3e, 0x35, 0xa8, 0xb4, 0xbe, 0x77, 0x55, 0x25, 0xbe,
    0x54, 0xab, 0x77, 0x3e, 0x59, 0x0e, 0x62, 0xbe, 0x39, 0x5d, 0xfa, 0x3c,
    0xb5, 0x30, 0x6b, 0x3e, 0x77, 0xe8, 0x6e, 0x3e, 0xce, 0x54, 0x02, 0x3e,
    0xa1, 0xe1, 0x63, 0x3d, 0x68, 0x1c, 0x50, 0x3e, 0x09, 0xf7, 0xa0, 0x3d,
    0x29, 0xf8, 0xa7, 0x3e, 0x11, 0x4b, 0x3a, 0xbe, 0x99, 0xb4, 0xcc, 0x3d,
    0x2e, 0xc8, 0x2c, 0x3e, 0x57, 0xd2, 0xb7, 0x3d, 0xa1, 0x4c, 0x8e, 0xbe,
    0x2d, 0x44, 0xf6, 0x3d, 0x30, 0x6a, 0x18, 0xbe, 0x73, 0x2a, 0xac, 0x3e,
    0x8e, 0x02, 0xfb, 0x3d, 0x07, 0x20, 0x91, 0xbe, 0x68, 0xc1, 0x88, 0x3d,
    0x1a, 0xb8, 0x6e, 0xbd, 0xd0, 0x85, 0x3a, 0xbc, 0xf1, 0x93, 0xea, 0x3d,
    0xe2, 0x66, 0x8e, 0xbe, 0x7e, 0x79, 0x83, 0xbe, 0x9e, 0xd6, 0xc2, 0xbd,
    0x3d, 0x65, 0x0a, 0xbc, 0x5c, 0x8c, 0xb7, 0x3e, 0xf9, 0x73, 0x95, 0xbe,
    0x89, 0x2c, 0x15, 0xbe, 0x02, 0x58, 0x05, 0x3e, 0x29, 0xd5, 0x91, 0x3e,
    0x8d, 0x15, 0x85, 0x3d, 0x4c, 0x14, 0x31, 0xbe, 0xff, 0x69, 0x81, 0xbe,
    0x25, 0x59, 0x90, 0x3e, 0x3f, 0x07, 0xce, 0xbd, 0x26, 0xbf, 0xca, 0xbe,
    0x32, 0x4b, 0xff, 0x3d, 0xd5, 0x34, 0x7f, 0x3c, 0xfb, 0xe3, 0x9b, 0x3d,
    0xa2, 0xb2, 0xf7, 0x3d, 0x76, 0x3e, 0x59, 0xbe, 0xeb, 0xf4, 0x78, 0xbe,
    0x36, 0x19, 0xad, 0xbe, 0x40, 0xc6, 0x07, 0x3e, 0x92, 0x71, 0x9f, 0xbb,
    0x18, 0x7a, 0x2a, 0xbe, 0xc1, 0x4f, 0xd9, 0x3d, 0x3e, 0x7d, 0x27, 0xbe,
    0xa3, 0x1e, 0x3f, 0x3e, 0x82, 0xd7, 0xc6, 0x3d, 0xd2, 0x3e, 0x0a, 0x3e,
    0xb1, 0x86, 0x34, 0x3e, 0x23, 0x35, 0x28, 0xbe, 0x84, 0x1d, 0x7a, 0x3e,
    0x1e, 0x39, 0x8e, 0x3e, 0x45, 0xc3, 0x52, 0x3e, 0x59, 0x36, 0x32, 0xbe,
    0x2f, 0xfe, 0x80, 0xbe, 0x00, 0x07, 0x5f, 0x3e, 0x62, 0xe3, 0x99, 0x3b,
    0x9b, 0x2d, 0xcd, 0xbd, 0xdc, 0x02, 0xd7, 0x3d, 0xcc, 0x5e, 0x9d, 0xbe,
    0x73, 0x79, 0xc4, 0x3d, 0x98, 0x8f, 0xda, 0x3d, 0x8d, 0xf1, 0x1b, 0xbe,
    0xfe, 0x7f, 0x92, 0x3e, 0x47, 0x1d, 0x2a, 0x3e, 0xbd, 0xb1, 0x7b, 0xbd,
    0x77, 0xa3, 0x18, 0xbe, 0xf9, 0xcc, 0x98, 0x3e, 0x8a, 0x10, 0xc1, 0x3d,
    0xb1, 0x46, 0x12, 0x3e, 0x3f, 0xd6, 0x26, 0xbe, 0x30, 0xad, 0xbd, 0x3b,
    0xa4, 0x78, 0x2a, 0x3e, 0xfa, 0x51, 0xf8, 0xbd, 0x59, 0xe3, 0x17, 0xbe,
    0xfd, 0xb2, 0x04, 0x3e, 0xab, 0x13, 0x7d, 0xbc, 0x70, 0xb2, 0x93, 0x3e,
    0xb2, 0x9d, 0x25, 0xbe, 0x67, 0x7f, 0xb6, 0xbd, 0x67, 0x54, 0x81, 0xbe,
    0x0c, 0x30, 0x6e, 0xbe, 0x66, 0xbf, 0xb1, 0x3e, 0x8d, 0xab, 0xed, 0x3d,
    0x7b, 0x88, 0x89, 0x3e, 0xc1, 0x5d, 0x8b, 0x3e, 0x9a, 0xe3, 0x7c, 0x3e,
    0x81, 0xd4, 0x38, 0xbe, 0x68, 0x7b, 0xa3, 0x3d, 0x41, 0xec, 0x86, 0x3c,
    0xb7, 0xae, 0x29, 0x3e, 0x64, 0x5d, 0x97, 0x3e, 0x80, 0x53, 0x65, 0x3e,
    0x6c, 0x29, 0x90, 0xbe, 0xdf, 0x38, 0x94, 0xbd, 0x67, 0x26, 0x6a, 0x3e,
    0x26, 0x99, 0x04, 0xbe, 0xbd, 0x83, 0x3f, 0x3e, 0xc3, 0x9b, 0x13, 0x3e,
    0x12, 0x3d, 0xac, 0x3e, 0x83, 0xdc, 0x29, 0x3e, 0xa7, 0x98, 0x96, 0x3e,
    0xe5, 0x21, 0x70, 0x3e, 0x74, 0x6c, 0x81, 0x3e, 0xdd, 0x60, 0xaa, 0xbe,
    0x9f, 0xa3, 0x1a, 0xbe, 0x2a, 0x55, 0x5c, 0x3e, 0x2d, 0x6c, 0x50, 0x3e,
    0xfc, 0x77, 0xea, 0x3d, 0x55, 0x78, 0x0b, 0xbe, 0x81, 0x9f, 0x13, 0xbd,
    0x66, 0x5d, 0xb9, 0xbd, 0xf2, 0x12, 0x0c, 0x3c, 0xb3, 0x00, 0x15, 0xbe,
    0x37, 0x6c, 0x8e, 0x3d, 0x4a, 0x70, 0x2a, 0xbe, 0x0c, 0x47, 0x69, 0xbe,
    0xdd, 0xab, 0x7f, 0x3e, 0x04, 0x77, 0x9c, 0xbe, 0xe6, 0xcc, 0x1d, 0x3e,
    0xd8, 0x24, 0x31, 0xbe, 0x4c, 0xbd, 0xcc, 0xbd, 0xf9, 0x7c, 0x93, 0x3e,
    0x1f, 0x79, 0x75, 0xbe, 0x42, 0xa0, 0x9e, 0xbd, 0x50, 0x9d, 0x9e, 0xbe,
    0x91, 0xd3, 0x9b, 0xbe, 0xed, 0x4d, 0xf3, 0xbd, 0x71, 0x7d, 0x0b, 0xbe,
    0x50, 0xc3, 0xa1, 0x3e, 0x31, 0x5f, 0xba, 0xbe, 0xca, 0x05, 0x19, 0xbd,
    0x4b, 0x88, 0xb9, 0x3d, 0x82, 0x2d, 0xe9, 0xbd, 0x20, 0xbb, 0x29, 0x3e,
    0xf2, 0x26, 0xd4, 0xbd, 0xcd, 0x62, 0x11, 0xbc, 0x75, 0x7f, 0xab, 0x3e,
    0xed, 0x62, 0x32, 0x3d, 0x10, 0x4f, 0x9f, 0xbe, 0x8f, 0x68, 0x3b, 0x3e,
    0xe5, 0xef, 0x37, 0xbe, 0xe4, 0xdf, 0x76, 0x3e, 0xc9, 0x89, 0x2b, 0x3e,
    0xdc, 0x1d, 0x9d, 0x3e, 0x60, 0xee, 0x8e, 0x3e, 0xc1, 0x4c, 0x96, 0x3e,
    0xb7, 0x77, 0x90, 0x3e, 0x19, 0x36, 0x97, 0x3e, 0xfc, 0x85, 0x74, 0xbd,
    0xba, 0x6b, 0x22, 0x3e, 0xbb, 0x8f, 0xc6, 0xbd, 0xd1, 0x1f, 0x92, 0x3e,
    0x0c, 0x49, 0x87, 0x3e, 0x6f, 0xee, 0x61, 0xbe, 0xac, 0xf7, 0x9b, 0x3e,
    0x52, 0xf0, 0xca, 0x3e, 0x7c, 0x9d, 0x92, 0xbe, 0xc8, 0x00, 0x71, 0xbd,
    0x7d, 0xde, 0x70, 0x3c, 0x49, 0xdb, 0x77, 0x3e, 0x8c, 0x10, 0x51, 0xbe,
    0xdd, 0x78, 0x0f, 0x3e, 0xca, 0x7f, 0x85, 0xbe, 0xd3, 0x58, 0x45, 0x3d,
    0xa5, 0xb8, 0x83, 0x3e, 0xbd, 0xf1, 0x88, 0x3e, 0x32, 0xde, 0x67, 0x3e,
    0x6d, 0x85, 0x15, 0x3d, 0xdb, 0x5b, 0xc4, 0xbe, 0x6f, 0xb9, 0x10, 0x3e,
    0xdd, 0xf7, 0x4a, 0x3e, 0x53, 0xec, 0x23, 0x3e, 0x4a, 0xa4, 0xd8, 0xbd,
    0xc0, 0x78, 0x34, 0xbe, 0x2c, 0x61, 0xe1, 0xbd, 0x39, 0x79, 0x9a, 0x3e,
    0xf0, 0x0b, 0xfa, 0x3c, 0xca, 0x74, 0x87, 0xbe, 0x73, 0x32, 0xb6, 0xbd,
    0x75, 0xb1, 0x89, 0x3c, 0x7d, 0xcb, 0x15, 0xbe, 0xe3, 0x79, 0x8c, 0xbe,
    0xfd, 0x64, 0x4a, 0x3e, 0x1c, 0xc2, 0x8e, 0xbe, 0x5d, 0x13, 0xa3, 0x3e,
    0xda, 0x60, 0x3f, 0xbe, 0x54, 0x53, 0x8a, 0x3e, 0x26, 0x34, 0x81, 0x3c,
    0x85, 0x4b, 0xd9, 0x3d, 0x6f, 0x47, 0x47, 0xbd, 0x77, 0xb1, 0x19, 0xbe,
    0x2b, 0x31, 0x67, 0xbe, 0x32, 0xd4, 0x89, 0xbe, 0x6e, 0xe6, 0xbd, 0x3d,
    0x10, 0x63, 0xab, 0xbe, 0xe8, 0x06, 0xa7, 0x3e, 0xcd, 0xaa, 0x56, 0x3e,
    0xe9, 0xd5, 0xec, 0xbd, 0x7b, 0xa8, 0x77, 0xbe, 0xd1, 0x98, 0xbe, 0x3d,
    0xc5, 0x37, 0x47, 0xbe, 0xdf, 0x58, 0x1a, 0x3c, 0x2a, 0x62, 0x4a, 0xbe,
    0xe0, 0x1a, 0x2a, 0xbe, 0x10, 0xee, 0x6c, 0xbe, 0x90, 0xb6, 0x24, 0xbe,
    0xd1, 0x26, 0x04, 0x3e, 0x71, 0x67, 0x83, 0x3d, 0x89, 0xa7, 0x3a, 0x3d,
    0x73, 0x43, 0x27, 0xbd, 0x00, 0x53, 0xbd, 0x3d, 0x70, 0x15, 0x42, 0xbe,
    0xb5, 0xdf, 0x97, 0x3e, 0xb8, 0x5f, 0x2f, 0x3e, 0x67, 0x3c, 0x4a, 0xbd,
    0x0e, 0xac, 0x1e, 0xbe, 0x59, 0xaa, 0x7f, 0x3e, 0x8a, 0x1e, 0x9c, 0x3e,
    0xe1, 0x56, 0x65, 0xbe, 0x10, 0x97, 0xce, 0xbe, 0xb9, 0xb3, 0x0d, 0x3e,
    0x4b, 0x14, 0xaf, 0xbd, 0xc1, 0x90, 0x29, 0xbd, 0x31, 0x0e, 0x92, 0xbe,
    0x0f, 0x24, 0x2b, 0xbd, 0xe6, 0xee, 0x8d, 0xbe, 0x82, 0x70, 0x58, 0xbd,
    0xd4, 0xc5, 0x86, 0x3e, 0x8e, 0x18, 0x07, 0x3e, 0xf1, 0x89, 0x80, 0xbe,
    0x59, 0x6e, 0xc2, 0xba, 0xa7, 0x61, 0x96, 0x3d, 0xfa, 0x38, 0x7f, 0x3e,
    0xf5, 0x10, 0x8d, 0xbe, 0xd5, 0x16, 0x8a, 0xbe, 0x33, 0xa2, 0x77, 0x3d,
    0x47, 0x4e, 0x8a, 0xbe, 0x65, 0xa1, 0x33, 0x3e, 0x9d, 0x7a, 0x06, 0xbe,
    0x42, 0x48, 0x92, 0x3d, 0xd2, 0xd4, 0x54, 0x3e, 0xd9, 0xa8, 0xb4, 0xbe,
    0x59, 0x2d, 0x9c, 0x3e, 0x68, 0x4d, 0x1c, 0xbd, 0x1a, 0xdd, 0x5f, 0xbe,
    0xef, 0xe0, 0x31, 0x3e, 0x0d, 0xfa, 0x63, 0x3c, 0x81, 0xb4, 0x4c, 0x3e,
    0x5d, 0x26, 0x86, 0x3e, 0x5b, 0x42, 0x98, 0xbd, 0xd6, 0x35, 0x87, 0x3e,
    0xb7, 0xb3, 0xa6, 0x3e, 0x01, 0x3f, 0xb0, 0x3c, 0x9e, 0xf6, 0x91, 0x3d,
    0x20, 0xc4, 0x97, 0x3e, 0x59, 0x03, 0x76, 0xbe, 0xd8, 0x92, 0x30, 0xbd,
    0xb9, 0xf9, 0x58, 0x3e, 0xd1, 0x77, 0xfc, 0x3c, 0xa6, 0x76, 0x89, 0xbe,
    0x33, 0xf6, 0xff, 0xbd, 0x58, 0xe6, 0x80, 0x3e, 0x06, 0x5e, 0x96, 0xbe,
    0x59, 0x10, 0xb0, 0xbe, 0xa0, 0x72, 0x53, 0x3e, 0xf3, 0x6a, 0xb4, 0x3d,
    0x02, 0x1b, 0x81, 0xbd, 0xdc, 0x27, 0x44, 0xbc, 0x28, 0x85, 0xff, 0x3d,
    0xc6, 0x1e, 0x27, 0xbd, 0x5a, 0x30, 0x0a, 0x3b, 0xe3, 0x77, 0xa8, 0xbe,
    0x32, 0xf1, 0xa2, 0x3d, 0xcf, 0x7b, 0x85, 0xbe, 0x96, 0x64, 0x58, 0x3e,
    0x34, 0x14, 0x3b, 0x3b, 0xa2, 0xf1, 0xa5, 0x3e, 0x24, 0x9f, 0xa7, 0xbd,
    0xa4, 0x43, 0x3f, 0x3c, 0xe5, 0x24, 0x19, 0xbc, 0x0a, 0x5d, 0x29, 0x3e,
    0x87, 0x4f, 0xce, 0xbd, 0xc1, 0x42, 0xa6, 0x3e, 0x8f, 0x92, 0x57, 0x3d,
    0xf9, 0xb6, 0x99, 0x3e, 0xf8, 0x28, 0x2f, 0xbe, 0xd7, 0x7f, 0x94, 0xbe,
    0xd3, 0x85, 0xa0, 0x3d, 0x2a, 0x99, 0x47, 0xbd, 0xcc, 0x3f, 0xbb, 0x3d,
    0x45, 0xe2, 0xb3, 0x3e, 0xc6, 0xde, 0x78, 0xbe, 0x63, 0xfd, 0x1f, 0x3e,
    0x94, 0xb6, 0x6d, 0xbe, 0xf3, 0x7a, 0x4e, 0x3e, 0x04, 0x6a, 0xa5, 0xbe,
    0x80, 0x51, 0x3e, 0x3e, 0xff, 0x2b, 0x78, 0xbe, 0x64, 0x07, 0x80, 0xbe,
    0x0b, 0xf8, 0x84, 0xbe, 0x4c, 0x43, 0xdc, 0xbd, 0x80, 0x40, 0x6c, 0x3e,
    0xac, 0xe9, 0xc4, 0xbb, 0x05, 0x91, 0x78, 0x3e, 0x19, 0x44, 0x3a, 0xbd,
    0xbc, 0xdf, 0x45, 0x3e, 0xbe, 0xe8, 0x54, 0x3e, 0xf1, 0xfa, 0x8a, 0xbe,
    0xe5, 0x94, 0x84, 0x3e, 0xde, 0x52, 0xf7, 0xbd, 0x2d, 0x59, 0x9c, 0x3e,
    0xcf, 0x17, 0x0f, 0x3e, 0x62, 0x7f, 0xff, 0xff, 0x04, 0x00, 0x00, 0x00,
    0x80, 0x80, 0x00, 0x00, 0x46, 0xdc, 0xed, 0xbd, 0x93, 0x0c, 0xbe, 0xbd,
    0x5c, 0xde, 0xd7, 0x3d, 0x33, 0xda, 0x7f, 0x3d, 0x98, 0x09, 0x5e, 0xbc,
    0xbb, 0xe8, 0x92, 0x3d, 0xda, 0x87, 0x6d, 0x3d, 0xb8, 0x95, 0xe4, 0x3c,
    0x8c, 0x5f, 0x0e, 0x3e, 0x00, 0xf8, 0xba, 0x3d, 0xff, 0xd4, 0x08, 0x3a,
    0x4b, 0x78, 0xb2, 0xbd, 0x5d, 0xfc, 0x47, 0xbd, 0x41, 0x5d, 0xad, 0x3c,
    0xb2, 0xd2, 0xcb, 0x3d, 0x22, 0x0b, 0x2d, 0x3d, 0x5a, 0x0d, 0x8d, 0x3c,
    0x68, 0x02, 0xcc, 0x3d, 0x76, 0x37, 0xcd, 0xbd, 0x48, 0xe5, 0x02, 0xbd,
    0xcc, 0x19, 0x21, 0xbd, 0xd6, 0xeb, 0x53, 0xbd, 0x7e, 0x5b, 0x4e, 0xbd,
    0x84, 0xb9, 0x9f, 0x3c, 0x2c, 0xac, 0x0f, 0xbd, 0x26, 0x02, 0xc0, 0x3d,
    0xcb, 0x5a, 0x22, 0x3d, 0xa7, 0x83, 0x9e, 0xbd, 0x13, 0x5b, 0xcc, 0xbd,
    0x08, 0xfa, 0x95, 0x3d, 0x32, 0xcf, 0xa8, 0xbb, 0x12, 0x94, 0x5e, 0xbd,
    0xf0, 0xaa, 0x76, 0xbd, 0x65, 0x8d, 0x2e, 0x3e, 0xe6, 0x4a, 0x33, 0x3e,
    0xe6, 0x84, 0xec, 0xbc, 0x13, 0xab, 0xe2, 0xbd, 0x5b, 0x2e, 0x1c, 0x3e,
    0x91, 0xda, 0xb2, 0xbd, 0x2a, 0x1c, 0x20, 0x3e, 0xec, 0x39, 0x41, 0xbd,
    0x4f, 0xa6, 0xe3, 0x3d, 0x06, 0xde, 0x0a, 0x3d, 0xb9, 0x20, 0x08, 0xbd,
    0x89, 0xfd, 0xd4, 0x3d, 0xb0, 0x99, 0x62, 0x3d, 0xed, 0xa9, 0x0f, 0xbc,
    0x69, 0x8a, 0x40, 0xbc, 0x4c, 0x8a, 0xc2, 0xbd, 0x35, 0x84, 0xae, 0x3d,
    0xd4, 0x3f, 0x92, 0x3d, 0x1c, 0x53, 0x18, 0xbe, 0x65, 0xe7, 0x9a, 0xbd,
    0xf7, 0xd8, 0x18, 0x3d, 0xde, 0x18, 0xed, 0xbd, 0x58, 0x69, 0xd6, 0xbc,
    0xbb, 0x06, 0x1b, 0x3e, 0x39, 0xd4, 0x67, 0x3d, 0xe9, 0xa6, 0xa4, 0xbd,
    0x75, 0x28, 0x45, 0x3c, 0xa4, 0xe4, 0xd9, 0xba, 0xb6, 0xa6, 0xf4, 0xbd,
    0x7c, 0x4b, 0xaf, 0x3d, 0x0b, 0xf5, 0xf7, 0x3d, 0x83, 0x84, 0x0d, 0x3e,
    0xe4, 0x77, 0xf4, 0x3c, 0xe7, 0x0c, 0x00, 0x3d, 0x18, 0xd3, 0x8f, 0xbd,
    0x66, 0x37, 0xcd, 0x3d, 0x9e, 0x07, 0x1d, 0x3d, 0x9b, 0xc9, 0x2d, 0x3d,
    0x90, 0x1d, 0xe5, 0xbd, 0x17, 0x37, 0x4b, 0x3c, 0xf2, 0x60, 0xb4, 0x3c,
    0x3a, 0x73, 0x92, 0xbc, 0x3c, 0x06, 0x81, 0x3d, 0xf7, 0xaf, 0xe7, 0xbd,
    0xe8, 0xe3, 0x3e, 0xbd, 0xc1, 0x57, 0x0e, 0x3c, 0x5d, 0x84, 0x7b, 0xbd,
    0x3c, 0xd0, 0x0c, 0xbd, 0x7b, 0x3d, 0x84, 0x3a, 0x24, 0xe5, 0xb2, 0xbc,
    0x39, 0x49, 0xf3, 0x3c, 0x7a, 0xb2, 0xcb, 0xbd, 0xa7, 0x3b, 0xdf, 0xbd,
    0x57, 0xe2, 0xf7, 0xbd, 0x68, 0x88, 0x05, 0xbe, 0xd8, 0x83, 0x8b, 0x3c,
    0x44, 0xd5, 0xd4, 0x3d, 0xa0, 0x55, 0xf2, 0xba, 0x9b, 0x2e, 0xee, 0x3d,
    0xb1, 0x0a, 0x6e, 0xbd, 0x01, 0xa8, 0x73, 0x3b, 0x07, 0xe1, 0xfb, 0xbd,
    0x41, 0x6a, 0xe4, 0xbb, 0x3b, 0xcc, 0x31, 0x3c, 0xb5, 0x0a, 0xcc, 0xbd,
    0x8d, 0x0d, 0x32, 0x3d, 0x26, 0x01, 0xab, 0x3d, 0x41, 0xb2, 0x42, 0xbc,
    0x9e, 0x75, 0xac, 0xbd, 0x5b, 0x1e, 0xd8, 0xbd, 0xb2, 0x9e, 0x2b, 0x3d,
    0xd7, 0xc9, 0x12, 0x3e, 0xb9, 0x0f, 0xcd, 0xbd, 0x02, 0xab, 0xf1, 0x3d,
    0x0f, 0x28, 0x13, 0x3e, 0x87, 0x00, 0xb1, 0xbc, 0xbd, 0x50, 0x8f, 0xbc,
    0x7d, 0xf3, 0x02, 0x3e, 0x97, 0x65, 0x80, 0x3d, 0xcc, 0x4e, 0x74, 0x3d,
    0xcb, 0x55, 0x10, 0x3e, 0x44, 0xed, 0x4a, 0xbd, 0x54, 0x18, 0x32, 0xbc,
    0x71, 0xaa, 0x6b, 0xbb, 0x7c, 0x8d, 0xa6, 0x3d, 0x11, 0x6b, 0x99, 0x3c,
    0x97, 0x70, 0xa7, 0xbd, 0xbb, 0x2a, 0x8f, 0xbd, 0x04, 0x8f, 0xa0, 0x3d,
    0x80, 0x93, 0xc3, 0xbd, 0x06, 0x74, 0x67, 0x3d, 0xc4, 0x69, 0x08, 0x3d,
    0xa0, 0x9f, 0x7d, 0x3c, 0x40, 0x2f, 0x63, 0x3c, 0xc6, 0x67, 0xa3, 0x3d,
    0x80, 0x19, 0x43, 0xbb, 0xd0, 0x1e, 0xed, 0x3d, 0x70, 0x55, 0xf5, 0xbd,
    0x6a, 0xc5, 0xc2, 0x3d, 0xd4, 0xac, 0xe7, 0xbd, 0x37, 0x38, 0xf0, 0x3c,
    0x1f, 0x22, 0x05, 0x3e, 0x88, 0x6c, 0x80, 0x3d, 0x70, 0x99, 0x92, 0x3d,
    0x1c, 0x95, 0x4f, 0x3d, 0x10, 0x40, 0x3b, 0xbc, 0x80, 0x44, 0xd7, 0x3a,
    0xc6, 0xcd, 0xbc, 0x3d, 0x34, 0x08, 0x5b, 0xbd, 0x03, 0x93, 0x2f, 0x3d,
    0x7c, 0x11, 0x93, 0xbd, 0xbb, 0x22, 0x07, 0x3e, 0xde, 0x78, 0xfc, 0xbd,
    0x05, 0xdd, 0xf2, 0xbd, 0x4f, 0xb6, 0xf0, 0xbc, 0x96, 0x37, 0xc5, 0xbd,
    0xde, 0x54, 0xe0, 0x3d, 0x64, 0x0f, 0xb5, 0x3d, 0x2b, 0x75, 0xeb, 0xbd,
    0x68, 0xa2, 0x22, 0x3d, 0x34, 0x67, 0xc9, 0x3d, 0x8c, 0xce, 0x15, 0xbd,
    0x06, 0x93, 0xfb, 0x3d, 0xef, 0x9a, 0x83, 0xbd, 0xb2, 0x98, 0xb2, 0x3d,
    0xbe, 0xfc, 0xea, 0x3d, 0xfa, 0xa8, 0x8a, 0x3d, 0xf8, 0xc1, 0x7c, 0x3d,
    0x22, 0x72, 0xec, 0xbd, 0x89, 0x4e, 0x13, 0x3e, 0xb0, 0xf2, 0x85, 0xbc,
    0x13, 0x3c, 0x12, 0x3e, 0xd9, 0x66, 0x11, 0x3e, 0xe6, 0x14, 0xbc, 0xbd,
    0xa5, 0x7f, 0x92, 0x3d, 0x5f, 0x33, 0xef, 0xbd, 0x4c, 0xec, 0xb7, 0x3d,
    0x37, 0x5d, 0x24, 0xbd, 0xef, 0x4d, 0x0f, 0xbe, 0x78, 0xc1, 0x93, 0xbd,
    0x26, 0xec, 0xeb, 0xbd, 0x56, 0x80, 0x04, 0xbe, 0xf0, 0xd2, 0xbd, 0xbd,
    0x3e, 0x09, 0x0d, 0xbe, 0x32, 0x88, 0xa3, 0x3d, 0x35, 0x00, 0x82, 0xbd,
    0x92, 0x05, 0xa9, 0xbd, 0x6d, 0xfd, 0x32, 0x3e, 0x50, 0x62, 0x79, 0x3d,
    0xc4, 0x9a, 0x93, 0x3d, 0x5a, 0xb9, 0xd8, 0x3d, 0xa8, 0xf1, 0xe6, 0xbd,
    0x0e, 0x0a, 0x58, 0xbd, 0x14, 0x98, 0x07, 0xbd, 0xb7, 0x79, 0x14, 0xbd,
    0x42, 0x03, 0xe7, 0x3d, 0x28, 0x96, 0x6c, 0x3d, 0x20, 0x93, 0xd4, 0xbd,
    0x24, 0x29, 0x04, 0x3d, 0x58, 0x1c, 0x72, 0x3d, 0xfc, 0x79, 0xfe, 0x3c,
    0x58, 0xe5, 0xc8, 0xbd, 0x33, 0x2b, 0x05, 0x3e, 0xa2, 0x90, 0x4f, 0xbd,
    0xda, 0x5c, 0x77, 0xbd, 0x86, 0x10, 0xf5, 0x3d, 0x07, 0xf7, 0x12, 0xbe,
    0x58, 0x2d, 0xd4, 0x3d, 0xde, 0x52, 0xf4, 0x3d, 0xa6, 0xbc, 0xfd, 0x3d,
    0xa6, 0x08, 0xda, 0x3d, 0x04, 0x65, 0x09, 0x3d, 0xe0, 0x45, 0xe8, 0x3c,
    0x1a, 0x2a, 0xa1, 0x3d, 0xe1, 0x85, 0xa2, 0xbd, 0x38, 0xf3, 0x02, 0x3d,
    0x90, 0xfc, 0x7d, 0x3c, 0xa0, 0x10, 0x99, 0x3b, 0x40, 0x62, 0x24, 0x3c,
    0x32, 0xd6, 0xe0, 0x3d, 0x4e, 0x97, 0xf8, 0x3d, 0x6a, 0xf6, 0xdc, 0x3d,
    0x05, 0x8c, 0xa4, 0xbd, 0x26, 0x4b, 0xc6, 0x3d, 0x3c, 0xc1, 0x89, 0x3d,
    0x7e, 0xb5, 0xbf, 0x3d, 0xc8, 0xf1, 0x88, 0x3d, 0x36, 0xe3, 0xe6, 0x3d,
    0x5e, 0x61, 0xa4, 0x3d, 0x10, 0xcf, 0x20, 0x3d, 0x46, 0xa3, 0x76, 0xbd,
    0x24, 0x42, 0x67, 0x3d, 0xa4, 0x1a, 0xe8, 0xbd, 0xd3, 0x59, 0xbe, 0xbd,
    0x14, 0x76, 0xbb, 0x3d, 0xb0, 0x9d, 0x99, 0xbc, 0x90, 0x97, 0xae, 0x3c,
    0xe8, 0x19, 0x3f, 0xbd, 0x9b, 0x18, 0x10, 0x3e, 0x76, 0xe2, 0xb1, 0xbd,
    0x34, 0x4d, 0xeb, 0xbd, 0xa0, 0x7e, 0x0e, 0xbd, 0x8c, 0x7c, 0x56, 0x3d,
    0xd4, 0x60, 0xb2, 0xbc, 0x04, 0x03, 0x9e, 0x3d, 0x60, 0x75, 0xd7, 0x3d,
    0xde, 0xcd, 0xde, 0x3d, 0x14, 0x92, 0x09, 0x3d, 0x8e, 0x44, 0x20, 0xbd,
    0x84, 0xe6, 0x6b, 0x3d, 0x3d, 0xae, 0xc7, 0xbd, 0xc4, 0x8a, 0xa5, 0xbc,
    0x00, 0x8a, 0x80, 0x3a, 0x78, 0x48, 0xc2, 0xbc, 0xda, 0x5b, 0xd5, 0x3d,
    0x87, 0xde, 0x08, 0xbe, 0x5c, 0x58, 0xc7, 0x3d, 0x00, 0xe7, 0x78, 0xbb,
    0xc8, 0x57, 0x7c, 0x3d, 0x8c, 0xe2, 0x19, 0xbe, 0x9f, 0x74, 0x23, 0xbe,
    0xc9, 0x44, 0xbd, 0xbd, 0x21, 0xa7, 0xcb, 0xbc, 0x00, 0x12, 0xd6, 0x3d,
    0x21, 0xca, 0x2c, 0x3c, 0xe4, 0x83, 0x20, 0x3b, 0x01, 0xc3, 0x4b, 0x3c,
    0x44, 0x1e, 0xb6, 0x3d, 0x0b, 0xfd, 0x00, 0x3e, 0xe1, 0xa3, 0xd3, 0xbd,
    0x7b, 0x3f, 0x57, 0x3b, 0xe2, 0x89, 0xe2, 0x3d, 0xc0, 0x85, 0xbf, 0x3d,
    0xeb, 0x33, 0x0a, 0x3e, 0x77, 0xcc, 0x21, 0xbe, 0xef, 0x1b, 0xb5, 0xbd,
    0x72, 0x11, 0x97, 0x3d, 0xfc, 0x11, 0x93, 0x3d, 0x6f, 0x73, 0xd1, 0x3d,
    0x3c, 0xd1, 0xb5, 0x3d, 0xaa, 0x4b, 0xeb, 0x3c, 0x2e, 0x46, 0xf3, 0x3d,
    0xc8, 0x42, 0xe8, 0xbc, 0x82, 0xb5, 0x1f, 0xbd, 0xf0, 0xc4, 0xd2, 0xbd,
    0xb2, 0x44, 0x0d, 0x3c, 0xe1, 0xc1, 0x09, 0x3d, 0xf7, 0x37, 0xd4, 0xbd,
    0x5a, 0x52, 0xe9, 0xbd, 0x9e, 0x6e, 0xbc, 0x3b, 0xa5, 0xff, 0x74, 0xbc,
    0x3c, 0xb2, 0xa8, 0x3c, 0xa0, 0x07, 0x6b, 0xbd, 0xaf, 0xc0, 0x6f, 0x3d,
    0x42, 0xc8, 0xc1, 0x3d, 0xaf, 0xdd, 0xf6, 0xbd, 0x40, 0xa1, 0xce, 0x3d,
    0xad, 0xce, 0x3c, 0xbd, 0x56, 0x8a, 0xbd, 0xbd, 0x9c, 0xb8, 0x95, 0xbc,
    0x66, 0x9c, 0xfb, 0xbd, 0x46, 0x3f, 0xb4, 0x3c, 0x8a, 0x93, 0xb7, 0x3d,
    0x09, 0xfe, 0x0e, 0x3e, 0x13, 0x2f, 0xb7, 0x3d, 0xbd, 0xe3, 0x87, 0xbc,
    0xb7, 0x2b, 0xee, 0xbd, 0x21, 0x7a, 0xaf, 0xbd, 0x64, 0x4e, 0xea, 0x3d,
    0x2a, 0xdc, 0x01, 0xbe, 0x76, 0x32, 0xc5, 0x3d, 0x84, 0x60, 0xd3, 0xbd,
    0x4c, 0x08, 0x7c, 0xbd, 0xf8, 0x80, 0x9a, 0x3d, 0x75, 0x6e, 0xeb, 0x3c,
    0x43, 0xc4, 0xd0, 0x3d, 0x2b, 0x98, 0xc1, 0xbd, 0x76, 0x8f, 0xb8, 0x3d,
    0x34, 0xe2, 0x95, 0x3d, 0x81, 0x47, 0x4a, 0x3d, 0xe9, 0x9d, 0xc4, 0x3d,
    0xcb, 0x42, 0xff, 0xbd, 0x86, 0x0c, 0x01, 0x3e, 0x91, 0x78, 0x0b, 0x3e,
    0x2e, 0x75, 0xbf, 0x3d, 0x3d, 0x6a, 0x53, 0x3d, 0x36, 0x57, 0x44, 0xbd,
    0xf9, 0x7d, 0xac, 0xbd, 0x52, 0x7c, 0xa3, 0xbc, 0xe1, 0x35, 0x1c, 0xbe,
    0x74, 0xa2, 0xce, 0x3c, 0xb9, 0xeb, 0xd8, 0x3d, 0x05, 0xe3, 0xf3, 0xbd,
    0x04, 0x81, 0x90, 0x3d, 0x0a, 0xea, 0x24, 0x3d, 0xab, 0x76, 0x10, 0x3d,
    0x15, 0x84, 0x64, 0x3d, 0x83, 0x4d, 0xeb, 0x3d, 0x95, 0x06, 0xf0, 0xbc,
    0x43, 0x33, 0xa6, 0x3c, 0x5d, 0xc5, 0xfe, 0x3d, 0x8f, 0x28, 0x17, 0x3d,
    0xa0, 0x0f, 0xee, 0x3d, 0xda, 0x74, 0xf6, 0x3d, 0xee, 0x64, 0xd8, 0xbd,
    0xc1, 0x7a, 0x9a, 0x3d, 0x80, 0x0f, 0x13, 0x3e, 0x93, 0x17, 0xe9, 0x3d,
    0x75, 0x1a, 0x5b, 0x3c, 0x00, 0xd6, 0xbd, 0xbd, 0xa4, 0x29, 0xa5, 0xbd,
    0x03, 0xe9, 0x4f, 0xb9, 0x5b, 0x60, 0x6a, 0x3d, 0x2a, 0x6c, 0x18, 0xbe,
    0x99, 0x6b, 0x0b, 0x3d, 0x1f, 0xb4, 0x77, 0x3d, 0xd8, 0xeb, 0x60, 0x3d,
    0x5f, 0x74, 0xf2, 0xbd, 0x4e, 0xc4, 0x64, 0xbd, 0x5c, 0xe9, 0xe6, 0xbc,
    0x3f, 0x25, 0x34, 0xbd, 0x0f, 0xcd, 0x8f, 0xbd, 0xf9, 0x2b, 0xe7, 0x3d,
    0x24, 0x70, 0x72, 0x3d, 0x4a, 0x2f, 0xf3, 0x3d, 0x8d, 0x03, 0x00, 0xbe,
    0x98, 0x63, 0x69, 0xbd, 0xcb, 0x6a, 0xc2, 0x3c, 0x15, 0xcf, 0x59, 0x3d,
    0xb6, 0xb4, 0xe7, 0xbd, 0xad, 0xf8, 0xf6, 0x3d, 0x2c, 0xb1, 0xa2, 0x3d,
    0xc5, 0x6d, 0x18, 0x3c, 0xab, 0x38, 0x0b, 0x3e, 0x93, 0x74, 0x33, 0x3b,
    0x18, 0xac, 0x1f, 0x3d, 0x73, 0x4d, 0xba, 0xbc, 0xa5, 0xe5, 0x44, 0xbd,
    0x72, 0xa2, 0xa5, 0x3b, 0xd3, 0xd1, 0x0d, 0xbe, 0xbc, 0x74, 0x07, 0xb9,
    0x30, 0x53, 0x85, 0xbd, 0xd1, 0xaa, 0x90, 0x3c, 0x35, 0xec, 0x53, 0x3d,
    0xfa, 0x5a, 0x8c, 0xbd, 0x35, 0x10, 0x90, 0x3d, 0x57, 0xea, 0x03, 0x3e,
    0x21, 0x05, 0xae, 0x3d, 0x48, 0xbf, 0xbc, 0x3d, 0x80, 0x66, 0x4a, 0xbc,
    0x36, 0x98, 0xd3, 0xbd, 0x70, 0x0e, 0xaf, 0x3c, 0x57, 0xaa, 0x8e, 0xbd,
    0xcd, 0xf4, 0x1b, 0xbd, 0x40, 0x7e, 0xc6, 0xbb, 0xf0, 0x8f, 0xad, 0x3c,
    0x16, 0x56, 0xe5, 0x3d, 0xa6, 0xd0, 0x00, 0xbe, 0xa0, 0x6b, 0xbc, 0x3c,
    0xf2, 0xec, 0xa1, 0x3d, 0x66, 0x21, 0xe2, 0x3c, 0x56, 0xa9, 0xe7, 0x3d,
    0xa0, 0x90, 0x3e, 0x3c, 0xb0, 0x6b, 0x71, 0x3d, 0xde, 0x33, 0x24, 0x3e,
    0xb6, 0x88, 0xae, 0x3d, 0x02, 0x2b, 0x92, 0x3d, 0xc0, 0x64, 0x8b, 0xbd,
    0xa0, 0x08, 0x1d, 0x3d, 0x40, 0x11, 0x52, 0xbc, 0x70, 0xe8, 0x69, 0x3d,
    0xf7, 0xb4, 0x23, 0x3e, 0x1c, 0xad, 0xa7, 0x3d, 0xfa, 0xaa, 0x68, 0xbd,
    0xf8, 0x1b, 0x8a, 0xbd, 0x0e, 0xa6, 0xd2, 0xbd, 0x7e, 0x0c, 0x7c, 0xbd,
    0x16, 0xc4, 0xe4, 0x3d, 0x00, 0x69, 0xd0, 0xba, 0x2e, 0xa8, 0xb3, 0x3d,
    0x40, 0x74, 0xe6, 0xbc, 0x5f, 0xb9, 0x06, 0xbe, 0xa4, 0x64, 0xea, 0xbd,
    0x48, 0x3a, 0xd3, 0xbc, 0x10, 0x36, 0xc4, 0xbd, 0xa2, 0x6c, 0x48, 0xbd,
    0xc5, 0xb4, 0x97, 0x3c, 0xfe, 0x44, 0x33, 0xbd, 0xc0, 0xae, 0xa1, 0xbc,
    0xda, 0x43, 0xe2, 0x3d, 0xa2, 0x70, 0xdb, 0x3d, 0x0d, 0x4a, 0x0b, 0xbd,
    0x0c, 0xbf, 0xf8, 0x3d, 0xc9, 0xda, 0x14, 0x3e, 0x5f, 0x68, 0x11, 0xbd,
    0x8c, 0xec, 0x5b, 0x3d, 0x68, 0x4f, 0x8c, 0xbd, 0xd4, 0x10, 0xf2, 0xbd,
    0xb8, 0x3f, 0xc4, 0x3d, 0x18, 0xf7, 0x39, 0x3d, 0xf0, 0xbb, 0xde, 0xbc,
    0x72, 0xfe, 0xfe, 0x3d, 0x94, 0xd3, 0x88, 0xbd, 0xaa, 0xdb, 0xe8, 0x3d,
    0xce, 0xbd, 0xa1, 0x3d, 0xcb, 0x29, 0x05, 0x3e, 0xfc, 0x86, 0xba, 0x3d,
    0xc8, 0x72, 0x68, 0x3d, 0x3e, 0x15, 0x12, 0xbe, 0xc4, 0xae, 0x7f, 0x3d,
    0xc0, 0xe8, 0x01, 0x3c, 0xd1, 0x3f, 0xd0, 0xbc, 0xf3, 0x00, 0xb6, 0xbd,
    0x00, 0x8b, 0x6a, 0x3b, 0xf3, 0xbc, 0x01, 0x3e, 0x78, 0x68, 0xe7, 0xbc,
    0xf0, 0x0f, 0x58, 0xbc, 0x08, 0x5c, 0x3d, 0x3e, 0x13, 0x3f, 0x91, 0xbd,
    0x03, 0xa6, 0x06, 0x3e, 0x03, 0x51, 0x91, 0xbd, 0xa0, 0x47, 0x32, 0x3c,
    0x20, 0x48, 0x5d, 0xbd, 0x9e, 0x40, 0xd9, 0xbd, 0xac, 0xb0, 0xa2, 0x3d,
    0xf0, 0x73, 0x34, 0xbd, 0x94, 0x03, 0xa6, 0x3d, 0xe8, 0x65, 0xf3, 0x3c,
    0x54, 0xe2, 0x08, 0xbe, 0x03, 0x0f, 0xb3, 0xbd, 0x7a, 0x79, 0x8c, 0x3d,
    0xf0, 0x9d, 0xab, 0x3d, 0xc8, 0x6f, 0xba, 0xbd, 0x00, 0x9d, 0x20, 0xbc,
    0x28, 0x7c, 0x14, 0x3d, 0x4e, 0xd0, 0x86, 0x3d, 0x96, 0x22, 0xd8, 0xbd,
    0x10, 0x6e, 0x59, 0x3c, 0x96, 0xf4, 0xef, 0x3d, 0xaf, 0x74, 0x0a, 0x3e,
    0x2c, 0x2c, 0xc1, 0xbd, 0x29, 0x79, 0xc7, 0xbd, 0xf0, 0x4e, 0x6a, 0xbc,
    0xf8, 0x52, 0x8f, 0x3c, 0x20, 0x54, 0xf7, 0x3c, 0x7e, 0x2b, 0xaa, 0x3d,
    0x68, 0xe2, 0x95, 0xbc, 0x7c, 0x27, 0x00, 0xbe, 0x7a, 0x17, 0xe1, 0x3d,
    0xf3, 0x5c, 0x0e, 0x3e, 0xe4, 0xf7, 0x07, 0x3e, 0x24, 0x02, 0x1d, 0x3d,
    0x86, 0xf1, 0xea, 0xbd, 0x8f, 0xa5, 0xe1, 0xbd, 0xde, 0x1d, 0x33, 0xbd,
    0xa0, 0xd6, 0x6c, 0x3d, 0x5c, 0x64, 0x45, 0xbd, 0x10, 0x8f, 0xfa, 0x3c,
    0xb4, 0x16, 0x17, 0xbd, 0xff, 0x20, 0x12, 0x3e, 0x98, 0xa4, 0xee, 0xbd,
    0xec, 0x65, 0x7f, 0x3d, 0x80, 0x92, 0x1a, 0xbb, 0x80, 0x96, 0x03, 0xbd,
    0xe9, 0xa6, 0x0c, 0x3e, 0x70, 0xb0, 0x16, 0xbd, 0xc0, 0x99, 0x5a, 0xbc,
    0xf3, 0x02, 0x87, 0xbd, 0x62, 0xf2, 0xbd, 0x3d, 0x80, 0xbb, 0xd2, 0x3c,
    0xd0, 0xd2, 0x28, 0xbe, 0x28, 0xae, 0x09, 0xbe, 0x18, 0x5a, 0xdc, 0x3c,
    0x2c, 0x08, 0x1a, 0x3d, 0xb8, 0x6b, 0x9b, 0x3c, 0x32, 0x9e, 0x0d, 0xbe,
    0x78, 0xac, 0xe2, 0xbd, 0x12, 0xa0, 0xac, 0xbd, 0x1d, 0x36, 0x04, 0xbe,
    0x4f, 0x09, 0xf6, 0x3d, 0x9c, 0xac, 0xc8, 0x3d, 0x91, 0xe8, 0xa4, 0x3b,
    0x9f, 0x72, 0xa9, 0x3d, 0x10, 0xd8, 0xa0, 0xbb, 0x6c, 0x20, 0x88, 0x3c,
    0x3c, 0x0b, 0x86, 0x3d, 0xed, 0x32, 0x82, 0xbc, 0xd2, 0xd0, 0x8d, 0x3d,
    0xef, 0x49, 0x00, 0x3d, 0xa1, 0x28, 0xef, 0x3d, 0xfc, 0x41, 0xb0, 0xbd,
    0x60, 0xa6, 0x96, 0xbc, 0x8c, 0xc9, 0xd3, 0x3b, 0x9e, 0x94, 0xfc, 0xbd,
    0xb0, 0xa9, 0xae, 0x3d, 0x41, 0x73, 0xda, 0xbd, 0xb8, 0x95, 0x14, 0x3d,
    0x90, 0x54, 0xda, 0x3c, 0x10, 0x9c, 0x72, 0xbb, 0xb8, 0xb4, 0x73, 0x3d,
    0x10, 0x2f, 0xff, 0xbd, 0xa8, 0xe8, 0x81, 0x3d, 0xa7, 0x01, 0xb7, 0xbd,
    0x35, 0x32, 0x9b, 0xbd, 0x97, 0x3b, 0x87, 0xbd, 0xd9, 0x04, 0x08, 0xbe,
    0x3b, 0xb3, 0xb2, 0xbb, 0x6c, 0x6e, 0xbc, 0xbb, 0x2e, 0x13, 0x61, 0xbd,
    0x44, 0x22, 0x85, 0xbd, 0xe8, 0x72, 0x28, 0xbc, 0x31, 0x94, 0x06, 0xbd,
    0xe9, 0xa3, 0x9e, 0x3c, 0xfa, 0x04, 0xb6, 0xbd, 0x89, 0x46, 0xdd, 0xbc,
    0xe3, 0x04, 0x0c, 0x3e, 0x05, 0x78, 0xed, 0xbc, 0x4b, 0xd8, 0xb3, 0xbd,
    0xa4, 0xee, 0xde, 0x3d, 0x50, 0x00, 0x3d, 0xbd, 0x04, 0x35, 0xaf, 0xbb,
    0x7a, 0x76, 0xb7, 0xbd, 0x4a, 0xbf, 0x8a, 0xbc, 0xb5, 0x7e, 0x7d, 0xbc,
    0x7f, 0xb6, 0x53, 0xbd, 0x38, 0xf7, 0xe3, 0xbd, 0xd7, 0x5d, 0x90, 0x3d,
    0x03, 0xf8, 0xdf, 0x3d, 0xa7, 0x9f, 0x28, 0xbd, 0xa7, 0xd2, 0x27, 0xbd,
    0xac, 0xf3, 0x39, 0xbd, 0xf7, 0x86, 0x10, 0xbd, 0xb5, 0x52, 0xc4, 0x3d,
    0xa1, 0x35, 0x4b, 0xbc, 0x64, 0x5b, 0x78, 0xbb, 0x9f, 0xdd, 0x97, 0xbd,
    0xe1, 0x76, 0xbc, 0xbd, 0x9b, 0xab, 0xad, 0xbd, 0x20, 0xcc, 0x20, 0x3e,
    0xa7, 0x21, 0xb4, 0x3d, 0xe4, 0x62, 0xe6, 0xbd, 0x68, 0x77, 0xc7, 0xbd,
    0x30, 0x29, 0x04, 0x3e, 0x1c, 0xbe, 0x1a, 0xbd, 0x23, 0x9b, 0xfe, 0x3d,
    0xf1, 0x89, 0x09, 0x3e, 0x63, 0x1a, 0xc9, 0xbd, 0x96, 0x23, 0xf9, 0xbc,
    0xd0, 0xdf, 0xba, 0x3d, 0xa4, 0xa5, 0x67, 0x3b, 0xfe, 0xaf, 0x1d, 0xbd,
    0xb7, 0x20, 0x1a, 0x3d, 0xe9, 0xd1, 0xeb, 0xbd, 0xb5, 0x29, 0x2b, 0x3d,
    0x9d, 0xc0, 0x96, 0xbd, 0x1b, 0xc3, 0x0c, 0xbb, 0x53, 0xe1, 0x03, 0xbe,
    0x95, 0x6a, 0xbb, 0x3d, 0xa6, 0x5f, 0xa6, 0x3d, 0xf9, 0x2d, 0x92, 0x3d,
    0x37, 0xd9, 0xef, 0x3d, 0x8a, 0x0c, 0x72, 0xbd, 0xe0, 0x5e, 0xec, 0xbb,
    0x7d, 0xef, 0x81, 0xbd, 0xa9, 0xcf, 0x04, 0xbe, 0x8e, 0x51, 0xa7, 0x3d,
    0xc6, 0x6e, 0x2b, 0xbd, 0xfe, 0x2d, 0x27, 0xbd, 0xca, 0xf0, 0xdd, 0x3d,
    0x45, 0x6b, 0x05, 0x3e, 0x28, 0xd7, 0xaa, 0xbd, 0x4d, 0x7c, 0x62, 0x3d,
    0xe3, 0x68, 0x0d, 0x3e, 0x88, 0x96, 0xf2, 0x3d, 0xc7, 0xcf, 0xd1, 0x3d,
    0x80, 0x85, 0xe0, 0x3b, 0x80, 0xbc, 0x4c, 0xbc, 0x76, 0xe9, 0x03, 0x3e,
    0x17, 0x2c, 0x4f, 0x3d, 0x73, 0xed, 0x17, 0x3e, 0x07, 0x55, 0xa4, 0xbd,
    0x2e, 0x7a, 0x09, 0xba, 0x27, 0x3f, 0x08, 0xbd, 0xaf, 0x03, 0x78, 0x3d,
    0xb0, 0xbf, 0xfe, 0x3c, 0xd0, 0xed, 0x82, 0xbd, 0xe9, 0x5a, 0x2b, 0x3d,
    0xaf, 0xac, 0xa9, 0x3d, 0x7d, 0x40, 0x00, 0xbe, 0x28, 0xf0, 0xb8, 0x3d,
    0x7f, 0xc5, 0x7b, 0xbd, 0x00, 0xaa, 0x69, 0xbd, 0x71, 0xa9, 0x38, 0xbd,
    0xab, 0xd0, 0x6b, 0xbd, 0x9c, 0xcf, 0xe9, 0xbd, 0xf0, 0xd9, 0x08, 0x3d,
    0xa1, 0x50, 0xdb, 0x3b, 0x2d, 0xc1, 0x36, 0xbd, 0x5b, 0x58, 0x03, 0x3e,
    0xf4, 0x66, 0x04, 0xbe, 0xb1, 0x26, 0x85, 0xbd, 0xc2, 0x98, 0x9e, 0xbd,
    0x47, 0xd7, 0x29, 0xbd, 0x98, 0x71, 0xb4, 0xbc, 0x30, 0xb1, 0x1a, 0xbe,
    0xa0, 0xaf, 0x77, 0x3c, 0xd0, 0xc3, 0xea, 0xbd, 0xa6, 0x26, 0xd5, 0xbd,
    0xe6, 0x4c, 0xfb, 0x3d, 0xf6, 0xea, 0xba, 0x3d, 0x64, 0x5b, 0x01, 0x3d,
    0xe3, 0x0e, 0xf0, 0xbd, 0x6a, 0x3f, 0xf0, 0x3d, 0x84, 0x24, 0x04, 0xbe,
    0x1c, 0xb4, 0xf1, 0xbd, 0x5e, 0x3c, 0xc2, 0xbd, 0x4a, 0x4e, 0xad, 0xbd,
    0x2c, 0x6b, 0x6f, 0xbd, 0x6a, 0x76, 0x97, 0xbd, 0x70, 0xe7, 0x37, 0x3d,
    0x80, 0x73, 0x51, 0x3b, 0x9c, 0xb7, 0x69, 0xbb, 0x54, 0xf0, 0x8b, 0xbd,
    0x7e, 0x24, 0xf9, 0x3d, 0x69, 0x12, 0xb3, 0x3d, 0xc6, 0xd4, 0xa5, 0xbd,
    0x2f, 0xff, 0x9b, 0xbd, 0xe7, 0x6b, 0x91, 0xbd, 0xbe, 0xbd, 0x96, 0x3d,
    0xba, 0xa1, 0xc8, 0x3d, 0x58, 0x9c, 0xea, 0x3c, 0x68, 0xd5, 0xbe, 0x3c,
    0x29, 0xc1, 0x8e, 0xbd, 0xe4, 0x6c, 0xd7, 0xbc, 0x6c, 0xeb, 0x9f, 0x3d,
    0xe8, 0xfa, 0x8c, 0xbd, 0xaa, 0xc6, 0xa4, 0x3d, 0x07, 0x4e, 0xf9, 0xba,
    0x9b, 0x4b, 0x80, 0xbd, 0xde, 0x3e, 0xd1, 0xbd, 0x10, 0x6c, 0xe5, 0x3c,
    0x20, 0x8e, 0x0c, 0xbc, 0x64, 0x60, 0xd5, 0x3d, 0xb0, 0x80, 0xe9, 0xbd,
    0x50, 0x9f, 0xa7, 0x3c, 0xda, 0x40, 0x0d, 0xbe, 0x60, 0xab, 0x5b, 0x3c,
    0x76, 0xa3, 0xd4, 0x3d, 0xcd, 0x1e, 0x9e, 0x3a, 0xf3, 0x2e, 0xf1, 0xbc,
    0x94, 0xeb, 0xfe, 0x3d, 0x28, 0x2f, 0x0e, 0xbe, 0x10, 0xa4, 0x10, 0xbe,
    0x57, 0x69, 0x0f, 0x3e, 0x16, 0xfe, 0xeb, 0xbd, 0xdb, 0x8e, 0x90, 0xbd,
    0xb8, 0x44, 0x86, 0x3d, 0xa6, 0x1c, 0xa8, 0x3d, 0x8a, 0x43, 0xd7, 0x3d,
    0x56, 0x23, 0x11, 0xbd, 0x0e, 0xda, 0xfa, 0x3d, 0xcb, 0x93, 0xdf, 0x39,
    0xf7, 0x08, 0x0a, 0x3e, 0x1e, 0xd3, 0x8c, 0x3d, 0x94, 0x85, 0xaf, 0xbc,
    0x8c, 0xcc, 0x2f, 0x3d, 0x65, 0xf4, 0xdf, 0xbd, 0x60, 0xa7, 0xec, 0xbc,
    0xa2, 0xe1, 0x99, 0x3c, 0xf8, 0xcb, 0x76, 0x3d, 0x63, 0x5f, 0x11, 0x3e,
    0xa0, 0x2e, 0x4b, 0xbd, 0xbc, 0x61, 0xba, 0x3d, 0x78, 0x15, 0xda, 0xbd,
    0x30, 0xdb, 0xe6, 0xbc, 0xdc, 0xe2, 0x14, 0x3d, 0xd0, 0x05, 0x1c, 0x3d,
    0x96, 0x5e, 0xfc, 0xbd, 0xfc, 0xb4, 0x7e, 0x3d, 0x7e, 0x44, 0xe4, 0x3d,
    0x29, 0x9a, 0xa2, 0xbd, 0xcc, 0x13, 0x55, 0xbd, 0x1b, 0x20, 0x02, 0xbe,
    0x40, 0x3a, 0x7a, 0x3e, 0xd2, 0xf7, 0x35, 0xbd, 0x50, 0x3d, 0x4e, 0x3c,
    0xc2, 0x9c, 0xa3, 0x3d, 0x84, 0x8d, 0xb0, 0x3d, 0xf0, 0x82, 0x53, 0x3d,
    0xac, 0x96, 0xa3, 0x3d, 0x10, 0xb9, 0xc9, 0x3c, 0x6a, 0xf5, 0xc0, 0x3d,
    0xfc, 0x98, 0xd7, 0xbc, 0x38, 0x15, 0x4f, 0x3d, 0x80, 0x6d, 0x7d, 0xbc,
    0x14, 0xee, 0x0f, 0xbe, 0x6c, 0x5c, 0x5b, 0x3d, 0x6c, 0xab, 0x69, 0xbd,
    0x80, 0x34, 0xdd, 0x3b, 0x2e, 0x8c, 0xb9, 0x3d, 0x00, 0x88, 0x2b, 0xb9,
    0x2b, 0x7e, 0x01, 0xbe, 0x5f, 0xdb, 0x93, 0xbd, 0xc0, 0x75, 0x70, 0x3b,
    0xf0, 0x78, 0x50, 0x3d, 0x34, 0xf7, 0x7b, 0x3d, 0x90, 0x50, 0x74, 0xbc,
    0x80, 0x82, 0x51, 0xbd, 0x08, 0x4b, 0x1a, 0xbd, 0xce, 0x36, 0xde, 0xbd,
    0x80, 0xb7, 0xd9, 0x3a, 0x42, 0x50, 0x73, 0x3d, 0x46, 0x0d, 0x13, 0xbd,
    0xfb, 0x5c, 0x9e, 0xbd, 0x3c, 0x1b, 0xa2, 0x3d, 0xb2, 0x01, 0x6f, 0xbd,
    0x80, 0x20, 0x9e, 0x3a, 0x2c, 0xe9, 0x49, 0x3d, 0xd2, 0xa9, 0xa8, 0xbd,
    0x64, 0x0d, 0x3a, 0xbd, 0xac, 0xb2, 0x40, 0x3d, 0x38, 0xc6, 0xaa, 0x3c,
    0x66, 0x87, 0xd2, 0x3d, 0xd0, 0xb2, 0x10, 0xbe, 0xb0, 0x78, 0x9f, 0x3d,
    0xe8, 0x6f, 0xb9, 0xbc, 0xa0, 0xe9, 0x8f, 0xbc, 0x46, 0x05, 0x75, 0xbc,
    0xd0, 0x07, 0x53, 0x3c, 0x00, 0x9d, 0xc7, 0xbb, 0x30, 0x55, 0x32, 0x3d,
    0xda, 0x5e, 0xc1, 0x3d, 0x26, 0x09, 0xb4, 0xbd, 0x08, 0x8e, 0x94, 0x3c,
    0xe9, 0x59, 0xcb, 0xbd, 0xd9, 0x3d, 0xa8, 0xbb, 0xe1, 0x90, 0x73, 0x3d,
    0xec, 0x15, 0x68, 0x3d, 0x48, 0x06, 0x4a, 0x3d, 0xb1, 0x55, 0x87, 0x3d,
    0xad, 0x9b, 0x75, 0xbd, 0x0f, 0xf4, 0xa3, 0x3d, 0x10, 0xcd, 0x4b, 0x3d,
    0xea, 0x8f, 0xe5, 0x3d, 0xac, 0xd8, 0xe1, 0x3d, 0xcf, 0xdf, 0xaf, 0x3d,
    0xca, 0x78, 0x8e, 0xbd, 0x39, 0xed, 0x6b, 0xbc, 0x67, 0xeb, 0xeb, 0xbd,
    0xdd, 0xc4, 0xe9, 0xbc, 0x88, 0x00, 0x26, 0xbd, 0xd5, 0x59, 0x05, 0x3c,
    0x1f, 0xf9, 0xbe, 0xbd, 0xf5, 0xa9, 0x55, 0x3d, 0xe6, 0xe0, 0x00, 0x3e,
    0xde, 0x81, 0x4d, 0xbd, 0x49, 0xe2, 0xb9, 0xbd, 0x66, 0xba, 0xae, 0x3c,
    0x30, 0x38, 0xf9, 0x3d, 0xeb, 0xbe, 0xfb, 0xbd, 0x07, 0x5e, 0x19, 0x3b,
    0x89, 0xb1, 0xef, 0x3d, 0x87, 0xba, 0x02, 0x3e, 0xd3, 0xcc, 0x99, 0x3d,
    0xed, 0x2d, 0xe4, 0xbd, 0x11, 0x4d, 0xc5, 0xbd, 0x52, 0x73, 0x6e, 0xbd,
    0xe7, 0x5e, 0x15, 0x3e, 0x41, 0xd0, 0x0a, 0xbe, 0x02, 0x82, 0xa2, 0xbd,
    0x47, 0xaa, 0x10, 0x3c, 0x5d, 0xfa, 0x8c, 0x3b, 0x9d, 0xef, 0xed, 0xbd,
    0xae, 0xcb, 0xfd, 0x3d, 0x10, 0xca, 0xd6, 0xbd, 0x75, 0x41, 0xac, 0x3d,
    0x15, 0xf5, 0xc8, 0xbd, 0xc2, 0x11, 0xd6, 0xbd, 0xf6, 0x70, 0xac, 0xbc,
    0xb9, 0x4e, 0xfe, 0x3c, 0x3d, 0xaa, 0x18, 0xbc, 0xa1, 0x56, 0x01, 0x3e,
    0x01, 0x28, 0x9d, 0xbb, 0x3f, 0xfa, 0x9e, 0xbd, 0x81, 0xd2, 0x88, 0xb9,
    0x1a, 0x6b, 0x0e, 0x3e, 0xb2, 0x93, 0xf9, 0xbd, 0x10, 0x79, 0xc0, 0xbd,
    0x2b, 0x82, 0x4c, 0xbd, 0xc8, 0x16, 0x62, 0xbb, 0x32, 0x54, 0xbb, 0x3d,
    0x8e, 0x57, 0x2b, 0x3d, 0xcf, 0xb0, 0xff, 0x3d, 0x02, 0xc2, 0x03, 0xbe,
    0x3c, 0xdd, 0xa8, 0x3d, 0xa9, 0x55, 0x7d, 0x3d, 0x7a, 0x2a, 0x87, 0x3d,
    0xce, 0xc7, 0x04, 0x3e, 0x1e, 0xb7, 0xd1, 0x3c, 0xed, 0xf1, 0xc1, 0x3d,
    0x18, 0x7c, 0x91, 0xbb, 0xf7, 0x4e, 0xb6, 0xbd, 0x86, 0xe2, 0xd7, 0xbd,
    0x4b, 0x4f, 0x33, 0xbd, 0x23, 0x6e, 0x2b, 0xbd, 0xd4, 0x34, 0x09, 0x3e,
    0x77, 0x64, 0x5c, 0xbd, 0x50, 0x4f, 0xf9, 0xbd, 0xaa, 0x96, 0x16, 0x3e,
    0xd7, 0x4d, 0x0a, 0xbe, 0xdc, 0x12, 0x68, 0x3c, 0x20, 0xa5, 0xb4, 0xbd,
    0xed, 0xd2, 0x99, 0xbd, 0x1f, 0x01, 0x64, 0xbd, 0xc2, 0xee, 0x1d, 0x3d,
    0xba, 0xdc, 0xde, 0xbd, 0x6e, 0x5a, 0xf2, 0xbc, 0x53, 0xcc, 0x81, 0xbd,
    0xd7, 0x31, 0xf7, 0x3d, 0xd4, 0xf1, 0x93, 0xbd, 0x59, 0x87, 0x18, 0x3e,
    0xfb, 0x2d, 0x28, 0xbd, 0xad, 0xe5, 0xf5, 0xbd, 0xeb, 0x76, 0x7d, 0xbd,
    0xd5, 0xb3, 0x34, 0x3c, 0x79, 0x49, 0xe0, 0x3d, 0x56, 0x88, 0xf6, 0xbd,
    0x1f, 0xed, 0x72, 0xbd, 0xb8, 0x74, 0x2c, 0xbd, 0xf8, 0x5f, 0x9b, 0xbd,
    0x56, 0xae, 0x25, 0x3d, 0x0a, 0x73, 0xc2, 0x3d, 0x00, 0x7a, 0xec, 0xbd,
    0xc1, 0x23, 0x9b, 0xbd, 0x83, 0x33, 0x83, 0x3d, 0x18, 0x57, 0xf7, 0x3d,
    0x7b, 0x53, 0xa9, 0x3d, 0x20, 0x9a, 0xe2, 0x3c, 0x35, 0xf7, 0xb4, 0xba,
    0x37, 0x56, 0x0b, 0x3e, 0x3c, 0xa7, 0xe4, 0x3d, 0xbf, 0x1d, 0x07, 0x3e,
    0xa9, 0xbb, 0x1b, 0x3d, 0x21, 0x30, 0xa6, 0x3d, 0x83, 0x16, 0x20, 0xbc,
    0x18, 0x0d, 0x3f, 0xbd, 0x0c, 0xab, 0x93, 0x3b, 0xaa, 0x37, 0xbb, 0xbd,
    0x99, 0x3e, 0xb7, 0xbd, 0x7b, 0xba, 0x5a, 0x3d, 0x97, 0xc8, 0x67, 0x3c,
    0xf4, 0x41, 0xf6, 0x3d, 0x39, 0x81, 0xeb, 0x3d, 0x24, 0xbb, 0x90, 0xbd,
    0x3e, 0xff, 0x99, 0x3c, 0xff, 0x99, 0x0f, 0xbe, 0x51, 0x3d, 0xee, 0xbd,
    0x35, 0x4b, 0x6b, 0xbd, 0xfc, 0x21, 0x32, 0xbc, 0x72, 0x54, 0xd7, 0xbc,
    0x47, 0xb3, 0x2a, 0x3d, 0x0e, 0x40, 0x63, 0x3d, 0x00, 0xff, 0x90, 0x3b,
    0xee, 0xa8, 0x35, 0xbd, 0xc6, 0x24, 0x44, 0xbd, 0x30, 0x43, 0x65, 0x3c,
    0x34, 0x88, 0x75, 0x3d, 0x04, 0xa4, 0x08, 0x3e, 0x54, 0x55, 0xd4, 0x3d,
    0x9e, 0x17, 0x00, 0xbe, 0xda, 0x83, 0x33, 0xbd, 0x89, 0x08, 0x80, 0x3d,
    0xb8, 0x37, 0xaa, 0xbd, 0x3b, 0xeb, 0xb3, 0xbd, 0x32, 0x7d, 0x20, 0x3d,
    0xbe, 0xbd, 0xd2, 0x3d, 0x10, 0xd6, 0x93, 0xbc, 0xf2, 0x86, 0xa5, 0xbd,
    0xba, 0x78, 0x43, 0xbd, 0xa0, 0xa8, 0x3d, 0x3c, 0x39, 0xb1, 0x23, 0x3e,
    0xf6, 0x9c, 0x76, 0x3d, 0x70, 0xe3, 0x4e, 0x3c, 0xef, 0xa1, 0x0d, 0x3e,
    0xa2, 0xc7, 0xe1, 0x3d, 0x58, 0x08, 0x9a, 0x3c, 0x08, 0x57, 0xc7, 0xbd,
    0xf8, 0xc4, 0x12, 0x3d, 0xff, 0xba, 0x07, 0x3e, 0xf8, 0xc6, 0xb9, 0x3d,
    0x40, 0x33, 0x6d, 0x3b, 0x76, 0x90, 0xe1, 0x3d, 0xbc, 0x83, 0x32, 0x3d,
    0x6d, 0x5e, 0xbd, 0xbd, 0xb8, 0xbc, 0x02, 0xbe, 0x74, 0xf1, 0x53, 0xbd,
    0xf3, 0xda, 0x25, 0xbe, 0x64, 0x8e, 0x74, 0x3d, 0x20, 0x7c, 0xa2, 0xbb,
    0xb0, 0xe8, 0x26, 0x3d, 0x37, 0x45, 0x31, 0x3d, 0xca, 0xb0, 0x49, 0xbd,
    0x80, 0xa5, 0x7c, 0x3b, 0xe4, 0x7b, 0xd2, 0xbd, 0x13, 0x6d, 0xc0, 0xbd,
    0x4a, 0xcc, 0x61, 0x3d, 0x6c, 0x81, 0x2d, 0xbe, 0x0c, 0xdd, 0x03, 0xbd,
    0x2c, 0x6f, 0xe2, 0xbd, 0xa0, 0x4f, 0x76, 0x3c, 0x5e, 0x0c, 0x87, 0xbd,
    0x24, 0x14, 0xb7, 0xbd, 0x70, 0x00, 0xe2, 0x3c, 0xa0, 0x48, 0xdd, 0xbb,
    0x40, 0x34, 0xc5, 0x3b, 0xac, 0x95, 0x03, 0xbd, 0xde, 0x9b, 0x81, 0xbd,
    0xb8, 0xbc, 0xe3, 0xbd, 0xeb, 0x83, 0x9a, 0x3d, 0x2c, 0x26, 0x30, 0x3d,
    0x7a, 0x26, 0x45, 0xbd, 0x0a, 0x25, 0xbc, 0x3d, 0x4c, 0x89, 0xa4, 0xbd,
    0xc0, 0xbf, 0xa7, 0x3d, 0xf0, 0x2c, 0xbe, 0xbd, 0x18, 0x5f, 0xf4, 0xbd,
    0xba, 0xba, 0x69, 0xbd, 0xf0, 0xa2, 0xe3, 0xbc, 0xbc, 0xbd, 0x41, 0xbd,
    0x10, 0xea, 0xf4, 0x3c, 0x98, 0x8c, 0x97, 0xbc, 0xfb, 0x4a, 0xd3, 0xbd,
    0xf4, 0xbc, 0x98, 0x3d, 0x77, 0xb8, 0x0c, 0xbe, 0x50, 0x41, 0x2a, 0x3d,
    0xc8, 0x80, 0xc7, 0x3c, 0x5f, 0xe1, 0xa4, 0xbd, 0xbf, 0x53, 0xa1, 0xbd,
    0x1b, 0x92, 0x02, 0xbe, 0x00, 0x2a, 0xb5, 0xbb, 0xb2, 0xd9, 0xf6, 0xbb,
    0x50, 0xdb, 0x7e, 0xbc, 0xd8, 0x1f, 0x8e, 0xbc, 0xf0, 0x40, 0xdf, 0x3c,
    0xf6, 0xb4, 0xe4, 0x3d, 0x10, 0x8f, 0x8f, 0xbc, 0xa2, 0xc0, 0xf5, 0x3d,
    0xc4, 0x58, 0xb8, 0xbd, 0x1c, 0xa9, 0x60, 0x3d, 0xe1, 0xe5, 0x07, 0x3e,
    0x4c, 0x67, 0x30, 0x3d, 0xc4, 0xc4, 0xd7, 0xbd, 0x3e, 0xd5, 0xfc, 0xbd,
    0x78, 0xb1, 0xd1, 0x3d, 0xe0, 0xae, 0x2a, 0x3c, 0x86, 0x8c, 0xab, 0xbd,
    0x32, 0x00, 0xf6, 0x3d, 0x8e, 0x94, 0xb2, 0x3d, 0xf0, 0x67, 0x17, 0x3d,
    0x1e, 0x33, 0xff, 0x3d, 0x0e, 0x67, 0xc7, 0x3d, 0x66, 0x90, 0x0d, 0xbe,
    0x98, 0xaf, 0xae, 0x3d, 0xd6, 0xe6, 0x0a, 0xbe, 0xf0, 0xa7, 0xa6, 0xbd,
    0x1c, 0x71, 0xa0, 0xbc, 0x00, 0x3f, 0x98, 0xbd, 0x8a, 0xe3, 0x3f, 0xbd,
    0x5e, 0x9b, 0x1b, 0x3d, 0x69, 0xe7, 0x07, 0x3e, 0x7c, 0xcc, 0x14, 0xbd,
    0xbc, 0x19, 0x2b, 0xbd, 0x2f, 0xf9, 0x0c, 0x3e, 0x1a, 0x1f, 0x98, 0xbd,
    0xc2, 0x82, 0x24, 0xbd, 0x4c, 0xbf, 0xe6, 0xbd, 0x00, 0x7a, 0x81, 0x3a,
    0x66, 0xf7, 0xdc, 0x3d, 0xcf, 0xe1, 0x05, 0xbe, 0x36, 0x04, 0xf8, 0x3d,
    0x22, 0xae, 0x32, 0xbd, 0x60, 0x7b, 0x92, 0x3c, 0x86, 0x0c, 0xeb, 0xbd,
    0x2e, 0xb7, 0x25, 0xbd, 0x62, 0xca, 0x3c, 0xbd, 0x90, 0xd0, 0x65, 0xbd,
    0x98, 0xd3, 0x8f, 0xbd, 0x80, 0xee, 0x3f, 0x3b, 0xa8, 0x44, 0x4d, 0x3d,
    0xc8, 0x16, 0x47, 0xbd, 0x20, 0xb7, 0x49, 0xbb, 0x94, 0x54, 0xe7, 0xbc,
    0x1d, 0xab, 0x78, 0xbc, 0x99, 0x4c, 0x2b, 0xbe, 0xbc, 0x74, 0x39, 0x3d,
    0xc8, 0x29, 0x05, 0xbe, 0xbd, 0x55, 0x6c, 0x3d, 0xfa, 0xc7, 0x17, 0x3e,
    0x49, 0x77, 0x04, 0xbd, 0xaa, 0xe8, 0x17, 0x3e, 0xc3, 0xee, 0xef, 0x3d,
    0xe2, 0x06, 0xd2, 0x3d, 0x05, 0xcb, 0x91, 0x3d, 0x81, 0x80, 0xa4, 0xbc,
    0xb8, 0xb2, 0x07, 0xbe, 0xc3, 0xeb, 0x3d, 0xbd, 0x31, 0x62, 0x05, 0x3e,
    0x2e, 0xe3, 0xa9, 0x3d, 0x6a, 0x10, 0xa6, 0xbc, 0x69, 0x89, 0xda, 0xbd,
    0x36, 0x30, 0x02, 0x3e, 0x3b, 0xcc, 0x5f, 0xbd, 0x14, 0x96, 0xe6, 0x3d,
    0xcd, 0xbb, 0x4c, 0xbd, 0x0d, 0x11, 0xcf, 0x3d, 0xec, 0x05, 0x32, 0xbd,
    0x89, 0x11, 0x51, 0x3d, 0xe6, 0x1c, 0xb2, 0xbd, 0xa2, 0xb2, 0x9a, 0xbd,
    0x7c, 0xfb, 0x8c, 0x3d, 0x84, 0x3f, 0xf8, 0xbc, 0x2e, 0xf8, 0xa7, 0xbc,
    0xef, 0xb8, 0xb0, 0x3c, 0x90, 0x43, 0x07, 0x3d, 0x99, 0x95, 0x1c, 0x3d,
    0x0c, 0x43, 0x0d, 0x3e, 0xd8, 0xfc, 0xfe, 0x3c, 0x53, 0xf8, 0x45, 0xbd,
    0xd9, 0x07, 0x3e, 0xbb, 0x51, 0xcb, 0xfe, 0x3d, 0x70, 0xc9, 0xbf, 0xbd,
    0x74, 0xec, 0xe2, 0xbd, 0x22, 0x2d, 0x27, 0xbd, 0x61, 0x45, 0x4b, 0x3d,
    0x5e, 0x43, 0xaf, 0xbd, 0xd2, 0x35, 0xa1, 0x3d, 0xb8, 0xd5, 0xae, 0x3d,
    0x3d, 0x62, 0x68, 0x3d, 0x62, 0xf0, 0x68, 0x3d, 0x79, 0x0c, 0xe4, 0x3c,
    0x41, 0xde, 0xfd, 0xbd, 0xaf, 0x2c, 0x7f, 0x3d, 0x8a, 0x15, 0xa4, 0x3d,
    0x29, 0x3d, 0x64, 0x3d, 0x49, 0xdf, 0xd1, 0xbd, 0x1e, 0xf3, 0x8d, 0xbd,
    0x80, 0xa2, 0xfa, 0x3d, 0xfd, 0x74, 0x05, 0xbd, 0x0e, 0x27, 0xd1, 0x3d,
    0xa8, 0xe7, 0x23, 0x3e, 0x66, 0xeb, 0x8e, 0xbd, 0xad, 0x4a, 0xc4, 0x3d,
    0x92, 0x58, 0xb2, 0x3c, 0xbd, 0x7d, 0xa5, 0xbc, 0x22, 0x1a, 0x63, 0x3d,
    0xd8, 0x6e, 0x86, 0x3d, 0xf4, 0x0f, 0x54, 0xbd, 0x16, 0xcb, 0xc2, 0xbd,
    0x3a, 0xc3, 0x81, 0x3c, 0x71, 0x60, 0xf4, 0xbd, 0xe5, 0x3e, 0x06, 0x3e,
    0xf0, 0x99, 0xc1, 0xbd, 0xd0, 0xbb, 0x69, 0xbd, 0xdd, 0xfd, 0x71, 0x3d,
    0x03, 0x5b, 0x4b, 0xbd, 0x13, 0x28, 0xde, 0x3d, 0x7d, 0x46, 0x92, 0x3d,
    0x86, 0x3e, 0xc9, 0x3d, 0x85, 0x6a, 0x86, 0x3d, 0x7e, 0x44, 0xce, 0xbd,
    0x92, 0x95, 0x1c, 0x3e, 0x7e, 0x4e, 0xa3, 0x3d, 0x97, 0x8f, 0xe5, 0x3d,
    0xac, 0x37, 0xbd, 0x3d, 0xb2, 0x6e, 0x8a, 0x3d, 0x58, 0x5a, 0xf1, 0xbd,
    0x29, 0x99, 0x93, 0xbd, 0xe0, 0x08, 0x05, 0xbe, 0xbe, 0x5a, 0xb1, 0x3d,
    0x9e, 0xd1, 0x17, 0x3e, 0x17, 0x0d, 0x58, 0x3d, 0xbc, 0x79, 0xb9, 0xbd,
    0x15, 0x6e, 0xb7, 0x3c, 0xbf, 0xdf, 0xe1, 0x3d, 0xda, 0x00, 0xfc, 0x3b,
    0xc1, 0x08, 0x13, 0xbe, 0x72, 0x09, 0x96, 0x3c, 0xfb, 0x85, 0x9c, 0x3d,
    0x70, 0xb3, 0xdc, 0x3d, 0xbd, 0xfb, 0xb1, 0x3d, 0xeb, 0xc9, 0xa2, 0x3b,
    0x07, 0xc3, 0xa4, 0x3d, 0x2a, 0x9a, 0xb0, 0xbc, 0xad, 0x10, 0xda, 0xbd,
    0x56, 0x18, 0x84, 0xba, 0x2c, 0x32, 0xf2, 0xbd, 0xa6, 0x51, 0x5f, 0xbc,
    0x39, 0xb3, 0xfc, 0xbd, 0xa8, 0x13, 0xc9, 0xbd, 0xf3, 0xfd, 0xe5, 0xbd,
    0xe0, 0xed, 0xa5, 0x3d, 0xd3, 0x26, 0x09, 0x3e, 0x40, 0xa9, 0xd3, 0xbd,
    0x43, 0x14, 0x07, 0xbe, 0x0c, 0x00, 0xc4, 0x3c, 0xbf, 0xf6, 0xc1, 0x3d,
    0x9e, 0xb3, 0x02, 0xbe, 0x16, 0x39, 0x96, 0x3d, 0xf2, 0x52, 0x14, 0xbe,
    0x5b, 0xe7, 0x6c, 0x3d, 0x97, 0x99, 0xb1, 0x3d, 0xc3, 0x3b, 0xbb, 0xbd,
    0xac, 0x58, 0xff, 0xbd, 0x16, 0xe3, 0x05, 0xbe, 0x24, 0xbd, 0xa0, 0xbd,
    0xcf, 0xb5, 0x24, 0x3d, 0xe5, 0x39, 0xe4, 0xbc, 0xca, 0xf6, 0xa8, 0xbd,
    0xa8, 0x60, 0x03, 0x3e, 0x5a, 0xf8, 0x18, 0xbd, 0xed, 0x03, 0x10, 0xbe,
    0xab, 0xcd, 0x08, 0xbe, 0x7e, 0x59, 0xcb, 0xbd, 0x5a, 0x64, 0xd9, 0x3d,
    0x2d, 0x47, 0x10, 0xbd, 0x80, 0xcd, 0x0d, 0x3b, 0xd0, 0xed, 0x8a, 0x3c,
    0x52, 0xfb, 0xf6, 0x3d, 0x2d, 0x93, 0xb9, 0xbd, 0xe8, 0x30, 0x4c, 0x3d,
    0x8f, 0x51, 0x8d, 0xbd, 0xed, 0xad, 0x39, 0xbc, 0xb0, 0xf1, 0x19, 0x3c,
    0x9e, 0xaf, 0x6c, 0xbd, 0x60, 0xec, 0x89, 0xbb, 0xaa, 0x3f, 0x8a, 0x3c,
    0xa4, 0xda, 0x56, 0xbd, 0xe0, 0x92, 0x88, 0xbd, 0x33, 0x24, 0x5b, 0xbc,
    0x7f, 0x3a, 0x85, 0xbd, 0xc4, 0x0d, 0x33, 0x3d, 0x70, 0x34, 0x57, 0x3d,
    0x41, 0xbc, 0x12, 0xbd, 0x70, 0xc5, 0x41, 0x3d, 0x80, 0x4b, 0x93, 0x3b,
    0xd8, 0x25, 0xd8, 0xbd, 0x60, 0x89, 0x69, 0x3d, 0xba, 0x7b, 0x48, 0xbd,
    0x90, 0x15, 0x3e, 0xbc, 0x20, 0x36, 0xdb, 0xbb, 0xb8, 0xca, 0x07, 0x3d,
    0x87, 0x92, 0x07, 0x3e, 0x8e, 0x8d, 0xa0, 0xbd, 0xaf, 0x75, 0x45, 0x3e,
    0xf8, 0xff, 0xa1, 0xbd, 0x7c, 0x3d, 0xa1, 0x3d, 0xe0, 0x82, 0x57, 0xbc,
    0xee, 0x5a, 0xf0, 0x3d, 0x2a, 0xf0, 0x97, 0x3d, 0x98, 0x78, 0xfe, 0xbd,
    0x53, 0xdc, 0xc9, 0xbd, 0xbc, 0x7b, 0x78, 0x3d, 0x3f, 0x39, 0xeb, 0x3c,
    0x9f, 0xe3, 0x6d, 0xbd, 0xf8, 0x60, 0xbd, 0x3d, 0x57, 0x67, 0xae, 0xbd,
    0x11, 0x4c, 0x84, 0xbd, 0x40, 0x86, 0x4e, 0x3d, 0x6e, 0xea, 0xf2, 0x3d,
    0xd0, 0xca, 0x7f, 0x3d, 0x68, 0xaf, 0xb8, 0x3c, 0x80, 0xed, 0xd1, 0xbb,
    0x82, 0xd1, 0xae, 0xbd, 0x00, 0x04, 0x43, 0x39, 0xa6, 0x8e, 0xa4, 0x3d,
    0xdd, 0xe4, 0x9d, 0xbc, 0x4f, 0x6a, 0x08, 0x3e, 0x2a, 0x5f, 0xec, 0xbd,
    0xd0, 0x84, 0x2d, 0xbd, 0xf4, 0x35, 0x56, 0xbd, 0x44, 0xa8, 0x29, 0x3d,
    0xea, 0x7a, 0xfc, 0x3d, 0x0d, 0x18, 0x2d, 0xbd, 0xcd, 0xcd, 0xf0, 0xbd,
    0x3c, 0x2f, 0xb3, 0x3d, 0x1e, 0x0d, 0xfb, 0xbd, 0x83, 0xa9, 0x11, 0x3e,
    0x70, 0x77, 0x14, 0xbc, 0xf3, 0xd0, 0x13, 0xbd, 0xa4, 0x55, 0xd7, 0x3d,
    0x98, 0x20, 0x60, 0xbd, 0x4c, 0xb0, 0xf2, 0xbd, 0x5e, 0xf5, 0x3e, 0xbd,
    0x50, 0x6f, 0xcb, 0xbc, 0x40, 0x06, 0x1c, 0x3b, 0xd8, 0x71, 0x4b, 0xbd,
    0xc4, 0x5d, 0x98, 0x3d, 0x37, 0x5d, 0x4e, 0xbd, 0xb2, 0x35, 0xe0, 0x3d,
    0xcd, 0xf2, 0xcb, 0xbd, 0x00, 0x4d, 0xf1, 0x3b, 0x1a, 0xae, 0xcd, 0xbd,
    0xa4, 0x24, 0x54, 0x3d, 0x3d, 0xef, 0xe3, 0xbd, 0xb4, 0x66, 0x70, 0x3d,
    0xaf, 0x2e, 0xf8, 0xbd, 0x32, 0xdd, 0x27, 0xbd, 0xaf, 0x76, 0x00, 0x3e,
    0x70, 0x71, 0x39, 0xbc, 0xc2, 0x25, 0x62, 0xbd, 0xa8, 0xcf, 0x69, 0x3d,
    0x07, 0xe2, 0xb3, 0xbd, 0x88, 0xcc, 0xad, 0x3d, 0x8a, 0xd6, 0xe7, 0xbd,
    0xe0, 0x5c, 0x95, 0x3d, 0x00, 0x5c, 0x45, 0xb9, 0x52, 0xdc, 0x62, 0xbd,
    0x96, 0xd2, 0xc5, 0xbd, 0x30, 0xd9, 0x80, 0xbd, 0x82, 0x51, 0x0b, 0xbd,
    0xf8, 0x86, 0xb6, 0x3c, 0x8f, 0x31, 0xcd, 0x3d, 0x2c, 0x04, 0xcb, 0xbd,
    0x3e, 0x30, 0xe7, 0x3d, 0xc0, 0x8c, 0xbb, 0x3d, 0x34, 0x2f, 0x58, 0xbe,
    0x5c, 0xd6, 0x65, 0x3d, 0x18, 0xcf, 0x84, 0x3d, 0xd4, 0xd8, 0x0d, 0xbe,
    0x4f, 0x63, 0x85, 0xbd, 0x76, 0x18, 0xdc, 0xbd, 0x40, 0x8c, 0x68, 0x3c,
    0xd4, 0xea, 0xfd, 0xbd, 0x92, 0x3c, 0x05, 0xbd, 0xe6, 0x8b, 0xdb, 0xbd,
    0xb0, 0x7d, 0xdc, 0xbc, 0x54, 0xf1, 0x42, 0xbd, 0x45, 0xcd, 0x02, 0x3e,
    0x8b, 0xbb, 0x0c, 0x3e, 0x58, 0xc7, 0x73, 0xbd, 0x54, 0xf7, 0x1a, 0x3d,
    0x29, 0x2e, 0x4a, 0xbc, 0x4a, 0x8f, 0x00, 0xbe, 0x04, 0x47, 0x91, 0xbd,
    0xb0, 0xb8, 0x31, 0xbc, 0x68, 0x6a, 0x84, 0x3c, 0x32, 0x1c, 0x84, 0x3d,
    0x2b, 0x08, 0x09, 0xbd, 0xea, 0x4d, 0xdc, 0xbc, 0xfc, 0x98, 0x34, 0xbe,
    0x95, 0x17, 0x6e, 0xbd, 0x1f, 0xb8, 0x08, 0x3e, 0xcc, 0xc7, 0x92, 0xba,
    0xef, 0x38, 0xf7, 0x3c, 0x74, 0x1e, 0x29, 0xbb, 0x87, 0xd8, 0xc0, 0xbd,
    0x09, 0x7d, 0x01, 0x3e, 0xa4, 0x4a, 0x7f, 0xbd, 0xa7, 0xce, 0xb7, 0xbd,
    0x3b, 0x0d, 0x93, 0xbd, 0xe3, 0x10, 0xbb, 0xbd, 0x36, 0xa2, 0x67, 0xbd,
    0xf7, 0xa1, 0x90, 0x3a, 0xd9, 0x18, 0x95, 0x3c, 0x07, 0xee, 0x05, 0x3c,
    0x13, 0x0b, 0x3f, 0x3c, 0xd9, 0xc0, 0x94, 0xbd, 0xd9, 0xc3, 0x92, 0x3d,
    0x87, 0xfd, 0xfc, 0xbc, 0xf1, 0xa9, 0xb0, 0x3d, 0x1a, 0xd4, 0xe9, 0x3c,
    0xcf, 0xbc, 0xee, 0xbd, 0xb0, 0xaf, 0x88, 0xbd, 0x4a, 0x5b, 0x98, 0x3d,
    0x9d, 0xc6, 0x37, 0x3d, 0x87, 0xcc, 0x9a, 0xbd, 0xa5, 0xfc, 0xc5, 0x3d,
    0x29, 0x05, 0x9e, 0xbc, 0xce, 0x87, 0x9b, 0xbc, 0x16, 0xff, 0xe4, 0x3c,
    0xba, 0x61, 0x48, 0xbd, 0x19, 0x48, 0xb7, 0xbd, 0x0c, 0x96, 0x37, 0xbd,
    0x7e, 0x41, 0x00, 0xbe, 0xd4, 0x84, 0x72, 0x3d, 0x05, 0x6b, 0xf1, 0xbd,
    0x7b, 0x88, 0xf6, 0x3d, 0x92, 0x05, 0x06, 0xbd, 0x43, 0x25, 0xaa, 0x3d,
    0xad, 0x2a, 0x86, 0x3c, 0xd4, 0xb6, 0x4e, 0x3c, 0xb4, 0x77, 0x02, 0xbe,
    0x27, 0x7e, 0xd9, 0xbd, 0x21, 0x19, 0xbe, 0x3c, 0x44, 0x58, 0x29, 0xbd,
    0x6e, 0x20, 0x06, 0x3e, 0x6e, 0x8f, 0x32, 0x3b, 0x29, 0xd6, 0xb2, 0x3d,
    0x5c, 0x91, 0x07, 0xbe, 0x01, 0xd0, 0x4d, 0xbd, 0xab, 0x19, 0x7e, 0xbc,
    0x5c, 0x32, 0x15, 0x3d, 0xdd, 0xd2, 0x22, 0xbd, 0xde, 0x4c, 0xa4, 0x3d,
    0x12, 0x48, 0x07, 0x3e, 0x1a, 0xbf, 0x01, 0xbd, 0xa3, 0xfb, 0x16, 0x3c,
    0x20, 0xaa, 0x05, 0xbd, 0x95, 0x6c, 0xe9, 0x3d, 0x1b, 0x69, 0x8d, 0x3d,
    0x8f, 0xd3, 0x05, 0xbe, 0xfc, 0x9b, 0x62, 0xbd, 0x50, 0xf4, 0x7b, 0x3c,
    0x4e, 0x4f, 0x07, 0x3e, 0xe1, 0xd2, 0xd4, 0x3d, 0x55, 0x24, 0x6a, 0x3c,
    0x6f, 0x80, 0x5b, 0xbd, 0x1c, 0x66, 0xe6, 0xbd, 0xba, 0x09, 0x93, 0xbd,
    0x68, 0xd0, 0x5b, 0xbd, 0x1b, 0x96, 0xde, 0xbb, 0x21, 0x90, 0x41, 0x3d,
    0xf6, 0x58, 0xa5, 0xbd, 0x16, 0x59, 0xde, 0x3d, 0xb2, 0x22, 0xd9, 0x3d,
    0xef, 0x4d, 0xd2, 0xbd, 0xc1, 0x3b, 0x14, 0xbd, 0x26, 0x37, 0xcd, 0xbd,
    0xa6, 0xd0, 0xad, 0xbd, 0xd3, 0x52, 0xa1, 0xbd, 0xe5, 0xd7, 0x96, 0x3d,
    0x09, 0xb1, 0xe4, 0x3d, 0x4e, 0x27, 0xa6, 0xbd, 0x25, 0x8c, 0xb3, 0xbd,
    0xa4, 0xcb, 0x03, 0xbd, 0x44, 0x07, 0xa6, 0x3d, 0x0d, 0x06, 0xa6, 0x3d,
    0xdf, 0x3d, 0xe4, 0xbd, 0x3a, 0x1d, 0xec, 0xbd, 0xc3, 0xc8, 0xf2, 0xbd,
    0x60, 0xeb, 0x81, 0x3d, 0xa4, 0xc8, 0xd5, 0xbd, 0xc9, 0xb9, 0xd1, 0xbd,
    0x4d, 0x5a, 0xaa, 0x3d, 0xf9, 0xe0, 0xe0, 0xba, 0xcb, 0x92, 0xef, 0x3d,
    0xef, 0x91, 0x78, 0xbc, 0x77, 0x91, 0xba, 0xbb, 0x36, 0xe2, 0x0a, 0x3e,
    0xf9, 0x11, 0x97, 0xbd, 0x43, 0x3e, 0xa9, 0x3c, 0xae, 0x90, 0x6a, 0xbd,
    0x7f, 0x0a, 0x8b, 0x3d, 0x3b, 0x1a, 0xc5, 0x3c, 0x0e, 0x5b, 0xff, 0x3c,
    0x67, 0x96, 0x86, 0xbd, 0x1b, 0xd0, 0x1c, 0x3e, 0xdd, 0x34, 0xa3, 0x3d,
    0xe6, 0xc6, 0x90, 0x3d, 0xf9, 0x41, 0x77, 0xbd, 0xbb, 0x15, 0xea, 0xbd,
    0xf5, 0x91, 0x4c, 0x3c, 0x22, 0x42, 0x35, 0xbc, 0xee, 0x06, 0x86, 0xbd,
    0x32, 0xdc, 0xf1, 0xbd, 0x13, 0x0c, 0xf7, 0x3d, 0xc4, 0xc1, 0xac, 0xbd,
    0x09, 0x71, 0x87, 0xbd, 0xbd, 0x01, 0x24, 0xbd, 0x03, 0x48, 0xf7, 0x3d,
    0x0f, 0x13, 0x12, 0xbd, 0x12, 0x24, 0xfe, 0xbd, 0xd6, 0xd2, 0x09, 0x3e,
    0xb0, 0x05, 0x9d, 0x3d, 0x54, 0x87, 0x07, 0x3e, 0x76, 0x0e, 0xd8, 0x3d,
    0xd7, 0xde, 0x0a, 0x3e, 0xcc, 0xd4, 0x0b, 0xbe, 0xe8, 0x17, 0x2c, 0x3d,
    0x10, 0x76, 0x01, 0xbe, 0x10, 0xb6, 0x8c, 0x3c, 0x1b, 0x23, 0xd6, 0x3b,
    0xf4, 0xc0, 0x09, 0xbe, 0x9c, 0x2d, 0x6b, 0x3d, 0xf6, 0xa3, 0xe0, 0x3d,
    0x6e, 0x1b, 0x5e, 0xbd, 0xc0, 0x57, 0x6a, 0x3c, 0xf0, 0x50, 0x14, 0xbc,
    0xe9, 0xd5, 0xa4, 0x3d, 0x70, 0xb7, 0x80, 0xbd, 0x60, 0x3a, 0x9f, 0x3d,
    0x98, 0x3d, 0xb7, 0x3c, 0x22, 0x2f, 0x45, 0xbe, 0x44, 0x7c, 0x89, 0xbd,
    0x97, 0xeb, 0xc7, 0xbc, 0x2e, 0x0c, 0x0d, 0xbd, 0x80, 0x02, 0x7b, 0x3b,
    0x39, 0x51, 0xbf, 0xbd, 0x40, 0x04, 0x12, 0x3d, 0x4e, 0x00, 0x14, 0xbe,
    0xa8, 0xa4, 0xa9, 0xbc, 0xa0, 0x68, 0xe0, 0xbb, 0xbd, 0x82, 0x0b, 0xbe,
    0x80, 0xa8, 0x5e, 0xbb, 0x84, 0xfb, 0xa5, 0x3d, 0x94, 0x93, 0x5c, 0xbd,
    0xa0, 0x43, 0x2d, 0xbc, 0xe8, 0x5e, 0xb0, 0x3d, 0x2d, 0xdd, 0xb6, 0x3d,
    0xe4, 0x9c, 0xb6, 0xbd, 0x83, 0x5a, 0xc7, 0xbd, 0xb6, 0xd0, 0xe7, 0x3d,
    0xc2, 0xe2, 0xe8, 0xbd, 0x86, 0x6e, 0xac, 0xbd, 0x43, 0xca, 0x0a, 0x3e,
    0x0e, 0x2f, 0xf0, 0xbd, 0x5a, 0x41, 0x0d, 0xbd, 0xa4, 0xa4, 0x2b, 0xbd,
    0x08, 0x28, 0xe2, 0xbd, 0xe9, 0x3d, 0x1b, 0x3e, 0x82, 0xd1, 0x12, 0xbe,
    0xf7, 0x82, 0xda, 0x3c, 0x66, 0xc0, 0x75, 0xbc, 0x71, 0xe7, 0x08, 0x3e,
    0x80, 0xa1, 0xa1, 0xbc, 0xa4, 0x36, 0x1a, 0x3d, 0xd5, 0x5c, 0x81, 0xbd,
    0x58, 0x65, 0x7b, 0x3d, 0x6f, 0x3e, 0x03, 0xbe, 0xa0, 0x5b, 0xe1, 0xbd,
    0x60, 0x16, 0x99, 0xbd, 0xde, 0xbd, 0x85, 0x3d, 0xf3, 0x16, 0xa2, 0x3d,
    0x10, 0x71, 0xa7, 0xbc, 0xe3, 0xe5, 0x06, 0x3e, 0xb0, 0x1b, 0xf2, 0xbd,
    0xee, 0xa1, 0xdc, 0x3d, 0x80, 0x64, 0x8a, 0xba, 0x20, 0x2c, 0xad, 0xbd,
    0x13, 0x54, 0xf3, 0xbd, 0x45, 0x19, 0xc0, 0xbd, 0xfd, 0x6a, 0x00, 0x3e,
    0x86, 0x86, 0xd3, 0xbd, 0x04, 0x86, 0x75, 0x3d, 0x48, 0x47, 0xa9, 0x3c,
    0x1e, 0xd6, 0x2c, 0x3d, 0x60, 0x01, 0x6a, 0x3d, 0x10, 0xe8, 0xb8, 0xbd,
    0x7c, 0xa5, 0x40, 0x3d, 0x1e, 0x44, 0xdc, 0xbd, 0x7e, 0xbd, 0xf5, 0x3d,
    0xc0, 0xe7, 0x77, 0x3b, 0x17, 0x19, 0x07, 0x3e, 0x10, 0x8f, 0x94, 0xbc,
    0x7b, 0x3e, 0x87, 0xbd, 0x00, 0x50, 0x72, 0x39, 0x41, 0x14, 0x04, 0x3e,
    0xd9, 0x5e, 0x0c, 0x3e, 0x6e, 0x8c, 0xdb, 0x3d, 0xf3, 0xad, 0x09, 0xbe,
    0x00, 0x9d, 0xb0, 0x3b, 0x57, 0x65, 0x87, 0xbd, 0x64, 0xd3, 0xa1, 0x3d,
    0x75, 0x82, 0x06, 0x3e, 0x78, 0x3b, 0x36, 0x3d, 0xda, 0x3e, 0xc6, 0x3d,
    0x03, 0x68, 0x05, 0x3e, 0xe4, 0x84, 0x0a, 0xbe, 0xe0, 0x45, 0xf7, 0xbd,
    0xe6, 0x46, 0xa0, 0x3d, 0xc5, 0x84, 0x9c, 0xbd, 0x6e, 0xf3, 0x85, 0x3d,
    0xc0, 0x76, 0x16, 0xbb, 0xb0, 0x13, 0xfb, 0x3c, 0x71, 0x29, 0x0a, 0xbe,
    0xd9, 0x22, 0xa6, 0xbd, 0x7b, 0x4a, 0xd8, 0xbd, 0xfc, 0x68, 0x8a, 0xbd,
    0x55, 0x09, 0x1e, 0x3d, 0x32, 0xd7, 0xfa, 0x3d, 0x54, 0xe1, 0x7f, 0x3d,
    0xbc, 0x41, 0x2d, 0x3d, 0x08, 0xaa, 0x49, 0xbd, 0x04, 0x84, 0x16, 0x3d,
    0x70, 0x65, 0xb0, 0x3d, 0x7a, 0x0a, 0xff, 0x3d, 0x40, 0x14, 0x3a, 0xbc,
    0x62, 0x25, 0x07, 0xbe, 0xb0, 0x5f, 0x57, 0xbc, 0x60, 0xbe, 0x3f, 0x3d,
    0xe0, 0x76, 0x82, 0xbb, 0xe3, 0x50, 0x07, 0x3e, 0x6c, 0xe0, 0xd3, 0xbc,
    0x94, 0x98, 0xd6, 0xbd, 0xbc, 0x43, 0x3e, 0x3d, 0xb1, 0x1a, 0x83, 0xbd,
    0x44, 0x1c, 0x19, 0x3d, 0x58, 0x50, 0x13, 0xbd, 0x8e, 0x8e, 0x75, 0x3d,
    0xd0, 0x88, 0xb2, 0xbc, 0x10, 0xc2, 0x8f, 0xbc, 0x6c, 0xd5, 0x30, 0x3d,
    0x04, 0xbc, 0xb9, 0x3d, 0x60, 0x78, 0xb3, 0xbb, 0x64, 0x41, 0x9f, 0x3d,
    0x1b, 0xdf, 0x83, 0xbd, 0x14, 0xc0, 0x24, 0x3e, 0x42, 0xbd, 0x31, 0xbe,
    0x64, 0x14, 0xcc, 0xbd, 0x08, 0xfc, 0xd4, 0xbc, 0xda, 0xa4, 0x05, 0xbe,
    0x09, 0xd8, 0x8c, 0x3c, 0x1c, 0x27, 0xb8, 0x3d, 0xdd, 0x95, 0xa4, 0x3c,
    0xdf, 0xb7, 0x2f, 0x3d, 0xc0, 0x7f, 0x03, 0xbd, 0x16, 0xa9, 0xed, 0xbd,
    0x30, 0xde, 0xd4, 0xbd, 0x76, 0x44, 0xc8, 0xbd, 0x96, 0x0b, 0x4d, 0xbd,
    0x73, 0x6d, 0xaa, 0x3d, 0xa7, 0x3d, 0xa1, 0xbd, 0x86, 0x24, 0x84, 0xbd,
    0xf9, 0xc5, 0x9e, 0x3c, 0xac, 0xc6, 0x09, 0xbe, 0x75, 0x09, 0xe3, 0xbd,
    0xf6, 0x5c, 0x66, 0x3d, 0xbe, 0xb0, 0xd4, 0xbd, 0x02, 0x43, 0xbc, 0xbd,
    0x2f, 0x17, 0xf8, 0x3d, 0x38, 0xe9, 0x97, 0x3b, 0x01, 0x75, 0xa0, 0x3d,
    0xa0, 0x9f, 0xce, 0xbd, 0x8a, 0x3c, 0x50, 0xbc, 0xfd, 0x42, 0xc9, 0x3c,
    0xdf, 0x3d, 0xb8, 0x3d, 0x44, 0x6e, 0xc9, 0xbd, 0x4d, 0x47, 0xab, 0x3c,
    0x43, 0xff, 0x6a, 0x3b, 0x02, 0x96, 0x8e, 0xbd, 0x8b, 0xd9, 0xa5, 0x3d,
    0x51, 0x62, 0x8b, 0x3b, 0xcd, 0x98, 0xf2, 0xbd, 0x56, 0x41, 0x9c, 0x3c,
    0x93, 0x30, 0x0e, 0xbe, 0xac, 0xcb, 0x64, 0x3d, 0x21, 0xa4, 0xc3, 0x3c,
    0xaa, 0x10, 0x58, 0xbd, 0x9f, 0xa4, 0xfb, 0x3d, 0x71, 0xf0, 0x8e, 0xbd,
    0xd8, 0xef, 0x7c, 0xbc, 0x9f, 0x56, 0xe1, 0xbc, 0xe8, 0xfb, 0xd5, 0xbd,
    0x5d, 0xce, 0xd5, 0x39, 0x14, 0xfd, 0x76, 0xbd, 0x67, 0x7d, 0xe8, 0x3d,
    0xb2, 0xbc, 0x3b, 0xbd, 0x47, 0xaa, 0xd8, 0x3d, 0xe1, 0x95, 0xe3, 0xbd,
    0x56, 0x5c, 0x06, 0xbe, 0xd5, 0x5b, 0xea, 0x3d, 0x4e, 0x04, 0xb4, 0xbd,
    0x0c, 0x09, 0x10, 0x3e, 0xa8, 0x7a, 0x51, 0x3d, 0x48, 0x63, 0x2f, 0xbd,
    0x22, 0x9a, 0x2f, 0x3d, 0xab, 0x3a, 0x09, 0xbd, 0xd2, 0x4e, 0x16, 0x3e,
    0x65, 0xce, 0x8c, 0xbd, 0xd9, 0xb7, 0xca, 0xbd, 0x77, 0x9e, 0xeb, 0x3d,
    0xd5, 0xfb, 0x09, 0xbe, 0x08, 0x73, 0x86, 0xbd, 0x30, 0xa1, 0xdb, 0xbd,
    0x4c, 0xa4, 0xc4, 0x3d, 0x2a, 0x61, 0xde, 0x3d, 0x19, 0xbd, 0x91, 0x3d,
    0xfb, 0x9c, 0xea, 0x3d, 0x20, 0x20, 0x8d, 0x3d, 0xe8, 0xff, 0xc2, 0x37,
    0x65, 0x60, 0xbe, 0x3d, 0xaf, 0x89, 0x85, 0x3d, 0xea, 0x0d, 0x7c, 0x3a,
    0xac, 0xb2, 0x3a, 0xbb, 0x49, 0x70, 0xb3, 0x3d, 0x71, 0x5b, 0xfc, 0xba,
    0x48, 0xe5, 0x09, 0x3e, 0x79, 0x3d, 0x08, 0xbe, 0x09, 0x95, 0x85, 0xbd,
    0x86, 0x64, 0xb6, 0x3d, 0x90, 0xed, 0x03, 0x3e, 0xe2, 0x78, 0x7d, 0x3c,
    0x5d, 0xa8, 0x37, 0xbd, 0xb2, 0xd5, 0xee, 0xbd, 0x5a, 0x50, 0xc2, 0xbc,
    0x39, 0xce, 0xe3, 0xbc, 0x52, 0x51, 0x14, 0x3e, 0x34, 0x26, 0xdc, 0x3d,
    0x76, 0xdf, 0x22, 0xbd, 0x01, 0x33, 0x9e, 0xbd, 0x0c, 0xef, 0x06, 0xbc,
    0x07, 0x94, 0xab, 0x3d, 0xce, 0x32, 0x0a, 0xbe, 0x80, 0x25, 0x12, 0x3e,
    0x4e, 0x6a, 0x4b, 0xbc, 0xdc, 0x54, 0x03, 0xbe, 0xa9, 0x60, 0xda, 0x3d,
    0xfa, 0x45, 0x3c, 0x3d, 0xaa, 0x51, 0xfe, 0xbd, 0x4c, 0x71, 0xde, 0x3d,
    0x05, 0x2d, 0xb1, 0x3d, 0x16, 0x91, 0x08, 0x3e, 0x1d, 0xa6, 0xc5, 0xbd,
    0xa3, 0xb1, 0xec, 0xbd, 0x86, 0xb8, 0xde, 0x3d, 0x6d, 0x7a, 0x71, 0x3d,
    0xa4, 0xf0, 0x9b, 0xbd, 0xbb, 0x49, 0x40, 0xbd, 0x18, 0x26, 0xbf, 0xbd,
    0x55, 0x35, 0xfd, 0x3d, 0xbd, 0x21, 0x20, 0xbd, 0xac, 0xa7, 0x15, 0x3d,
    0xef, 0xf4, 0xd7, 0x3d, 0xde, 0xdb, 0x7f, 0xbc, 0x5b, 0x41, 0xa6, 0x3d,
    0x1b, 0xd7, 0x77, 0x3c, 0x77, 0xe8, 0x6f, 0xbd, 0x71, 0x43, 0x01, 0xbd,
    0x81, 0x81, 0xf5, 0x3d, 0x42, 0xf5, 0x61, 0x3d, 0x50, 0x66, 0x10, 0xbb,
    0x5b, 0x2f, 0x17, 0xbe, 0x70, 0x09, 0x8f, 0x3c, 0x30, 0x3f, 0x52, 0x3c,
    0x42, 0x37, 0x10, 0xbe, 0xda, 0xf5, 0xa7, 0x3d, 0x60, 0x8b, 0x92, 0x3c,
    0x2a, 0x1a, 0xf3, 0x3d, 0x23, 0x32, 0x60, 0x3d, 0xb2, 0x35, 0xfc, 0x3d,
    0x7c, 0x9c, 0xf4, 0xbc, 0x9c, 0x65, 0x69, 0x3d, 0xf8, 0x51, 0x31, 0xbd,
    0xa6, 0x60, 0x40, 0xbd, 0xe0, 0xc8, 0xd7, 0x3d, 0x90, 0x7f, 0xcb, 0x3d,
    0x22, 0x6f, 0xe6, 0xbd, 0x41, 0x8f, 0x0f, 0x3e, 0x6d, 0x6f, 0x09, 0xbe,
    0xfe, 0x2e, 0x0f, 0xbb, 0x40, 0x3d, 0x50, 0xbc, 0x08, 0x1d, 0x06, 0x3e,
    0x8a, 0x97, 0x5d, 0x3d, 0x0c, 0xf4, 0x2d, 0x3d, 0x74, 0xb1, 0x0e, 0x3d,
    0xa3, 0x38, 0x07, 0xbe, 0x31, 0xfe, 0x8f, 0xbd, 0x80, 0x18, 0x42, 0xbc,
    0xf3, 0x28, 0x89, 0xbd, 0xa2, 0x91, 0xdb, 0x3d, 0x3a, 0x29, 0xc0, 0x3d,
    0x03, 0x0e, 0x07, 0x3e, 0x10, 0x3e, 0x41, 0x3c, 0xae, 0x2b, 0xb9, 0x3d,
    0x98, 0x54, 0xc9, 0xbd, 0x7b, 0x96, 0xb8, 0xbb, 0x4c, 0xe0, 0x56, 0xbd,
    0x14, 0xa3, 0x59, 0x3d, 0x2c, 0xee, 0x05, 0xbe, 0x10, 0xd2, 0x7e, 0xbc,
    0x04, 0x32, 0xc2, 0xbd, 0x1e, 0x44, 0x44, 0x3d, 0x22, 0x23, 0xc6, 0x3d,
    0xa8, 0x82, 0xd6, 0xbd, 0xa6, 0xa2, 0xe0, 0x3d, 0x60, 0x52, 0xc7, 0xbb,
    0x6f, 0x39, 0x15, 0x3d, 0x83, 0x63, 0x1f, 0xbe, 0x78, 0x72, 0x35, 0x3a,
    0x56, 0x42, 0x8a, 0x3c, 0xcc, 0x0e, 0xc4, 0xbd, 0x84, 0x1f, 0xc5, 0xbc,
    0xbc, 0x1d, 0xff, 0xbd, 0xf8, 0x81, 0x1b, 0x3d, 0x36, 0xae, 0x08, 0xbe,
    0xc8, 0xb2, 0x2e, 0x3d, 0xf5, 0x9e, 0x07, 0xbe, 0x40, 0x77, 0xe0, 0x3b,
    0x94, 0x44, 0x89, 0xbd, 0x28, 0xc2, 0x84, 0xbd, 0xe8, 0xd3, 0x8e, 0x3c,
    0xee, 0xd5, 0xfe, 0x3d, 0x5e, 0xb7, 0xe0, 0x3d, 0xd8, 0x33, 0x25, 0x3d,
    0x34, 0xe3, 0x1d, 0x3d, 0xd0, 0x31, 0xd7, 0xbd, 0xb5, 0xa4, 0xc2, 0x3d,
    0xd4, 0xd6, 0xb8, 0xbd, 0x00, 0x3c, 0x47, 0xbc, 0xec, 0xc4, 0x7c, 0x3d,
    0x76, 0x26, 0x09, 0xbe, 0x84, 0x7f, 0xbb, 0xbd, 0xd4, 0xcd, 0x14, 0xbe,
    0xe8, 0x8f, 0x45, 0xbd, 0x32, 0x94, 0xf9, 0x3d, 0x80, 0xdf, 0xce, 0xba,
    0x8c, 0xb4, 0x88, 0x3d, 0x3e, 0xa9, 0xfb, 0x3d, 0x5c, 0xbd, 0x97, 0xbd,
    0x4c, 0x06, 0x56, 0x3d, 0xe4, 0x71, 0xb0, 0xbc, 0x69, 0x27, 0x2a, 0xbb,
    0x1b, 0x69, 0xee, 0xbd, 0x77, 0xcc, 0x0d, 0x3e, 0xa8, 0xae, 0x98, 0xbc,
    0xae, 0x90, 0x5e, 0xbd, 0x35, 0x10, 0x07, 0x3e, 0x92, 0xc8, 0xb7, 0x3d,
    0x20, 0xa6, 0xe7, 0xbb, 0xa4, 0x48, 0x7b, 0xbd, 0x63, 0xb8, 0xb3, 0xbd,
    0x36, 0x61, 0xae, 0x3d, 0xf4, 0x39, 0xd9, 0xbd, 0x7e, 0xf4, 0xa5, 0x3d,
    0x6f, 0x4d, 0x0e, 0x3e, 0x94, 0xd1, 0x2e, 0xbd, 0xc8, 0x90, 0x3d, 0xbd,
    0x36, 0x5f, 0x2e, 0xbd, 0x2c, 0x9c, 0xce, 0xbd, 0x70, 0x37, 0x97, 0x3c,
    0x90, 0x8c, 0xb7, 0x3d, 0x0c, 0xae, 0x68, 0x3d, 0xed, 0x2f, 0x04, 0xbe,
    0xce, 0xd7, 0xe3, 0x3d, 0x22, 0x47, 0x3f, 0xbd, 0x87, 0x0b, 0xbd, 0xbd,
    0x64, 0x03, 0x45, 0x3d, 0xd4, 0xa2, 0x03, 0xbe, 0x80, 0x8a, 0x36, 0xbc,
    0x42, 0xbc, 0x8e, 0xbd, 0x3c, 0x83, 0x05, 0xbe, 0x00, 0xde, 0xe9, 0x3a,
    0x7e, 0xb5, 0x1c, 0xbd, 0xb5, 0x9e, 0x00, 0x3e, 0xf4, 0xae, 0x57, 0xbd,
    0x93, 0xb8, 0x05, 0x3e, 0xfa, 0xdb, 0xf5, 0x3d, 0x00, 0x60, 0xf3, 0xb8,
    0x98, 0x3f, 0x83, 0x3d, 0x51, 0x31, 0x88, 0xbd, 0xd0, 0x99, 0xa5, 0x3c,
    0xa0, 0x9e, 0x63, 0xbd, 0x6f, 0xcd, 0x08, 0xbe, 0xc5, 0x69, 0xdb, 0xbd,
    0xcd, 0x21, 0xb6, 0xbd, 0x6e, 0x86, 0x07, 0x3e, 0xaa, 0x99, 0xbf, 0x3d,
    0x32, 0x35, 0xc4, 0x3d, 0xda, 0xbe, 0x9e, 0x3d, 0xcc, 0xc2, 0x4d, 0x3d,
    0xbe, 0x3b, 0xc7, 0xbd, 0x3a, 0x84, 0x4e, 0xbe, 0x79, 0xa1, 0x0a, 0xbd,
    0x13, 0x96, 0x37, 0x3d, 0x1e, 0x84, 0xb7, 0xbd, 0x5c, 0x86, 0x28, 0xbd,
    0x5a, 0xa4, 0x0a, 0xbe, 0x13, 0x8f, 0x96, 0xbd, 0xb2, 0xe6, 0xf9, 0xbd,
    0x44, 0xf2, 0xdf, 0xbd, 0x96, 0x1a, 0x0b, 0xbe, 0xe6, 0xd6, 0xb4, 0x3c,
    0x93, 0x4f, 0x1b, 0xbd, 0xa4, 0xca, 0x8f, 0xbd, 0x65, 0xad, 0xe9, 0x3d,
    0xec, 0x65, 0xe2, 0xbd, 0xf6, 0x7a, 0x01, 0xbe, 0xa5, 0x26, 0xf5, 0x3d,
    0x25, 0x5d, 0x4b, 0x3c, 0xc6, 0x4e, 0x2b, 0x3d, 0xe8, 0xe1, 0x94, 0x3c,
    0xfa, 0x0b, 0x10, 0x3e, 0x77, 0x48, 0x67, 0x3d, 0x41, 0x68, 0xbd, 0x3d,
    0x99, 0xfa, 0xf0, 0x3d, 0x38, 0x32, 0x5b, 0x3d, 0x19, 0x59, 0x0d, 0x3e,
    0x6b, 0x3c, 0xb5, 0xbd, 0xa5, 0xce, 0xc7, 0xbd, 0xc6, 0x46, 0x41, 0x3d,
    0xa3, 0xe2, 0x93, 0x3d, 0x49, 0xa4, 0x11, 0xbe, 0x5b, 0x6e, 0x1e, 0x3d,
    0xb1, 0xbd, 0x0c, 0x3e, 0x63, 0x9a, 0xf5, 0x3d, 0x88, 0xb3, 0xb2, 0x3c,
    0xbd, 0xab, 0x50, 0xbd, 0x55, 0xda, 0x30, 0x3d, 0xe6, 0xc4, 0x8b, 0xbd,
    0x7b, 0xee, 0x97, 0xbd, 0xc5, 0x88, 0x87, 0xbd, 0x89, 0x52, 0x0f, 0xbe,
    0xec, 0x50, 0x8c, 0x3b, 0xca, 0x00, 0x48, 0xbd, 0x3d, 0xef, 0xb9, 0xbd,
    0x56, 0x37, 0xf0, 0x3d, 0x1d, 0xd7, 0xb6, 0x3d, 0xd8, 0xa8, 0xd5, 0x3d,
    0x17, 0x23, 0x2f, 0x3c, 0x7d, 0x89, 0xef, 0xbd, 0xe0, 0x7f, 0xa8, 0xbd,
    0x06, 0x10, 0x2b, 0xbd, 0x74, 0x5f, 0xa2, 0xbc, 0x8f, 0x77, 0xfa, 0x3d,
    0x8e, 0xfc, 0xd9, 0x3d, 0x13, 0xf1, 0xa1, 0xbd, 0x0a, 0x96, 0x9e, 0x3d,
    0x8b, 0xc7, 0x0c, 0x3e, 0x6f, 0x79, 0x83, 0xbd, 0x64, 0x4d, 0xaf, 0x3d,
    0xc4, 0x69, 0x0c, 0xbe, 0x66, 0x3a, 0x01, 0xbe, 0x51, 0x80, 0xab, 0xbd,
    0x09, 0xd2, 0x09, 0xbd, 0xc4, 0x4b, 0x8f, 0x3d, 0xb7, 0xee, 0xa4, 0xbd,
    0xa3, 0xed, 0x0e, 0xbd, 0x83, 0xc5, 0xe5, 0xbd, 0x4f, 0xd4, 0x21, 0xbc,
    0xbf, 0x9e, 0x03, 0x3e, 0x50, 0x1e, 0x8f, 0xbc, 0x49, 0x2e, 0x9c, 0x3d,
    0x8a, 0xf0, 0x0d, 0x3e, 0x18, 0x42, 0xe7, 0xbd, 0x47, 0xbc, 0xe6, 0xbd,
    0x8e, 0xb2, 0x0a, 0xbe, 0xa4, 0xed, 0x5b, 0x3d, 0xd0, 0x23, 0x03, 0x3e,
    0x1d, 0x0b, 0x87, 0xbc, 0xa5, 0x3b, 0xd7, 0x3d, 0x48, 0xa6, 0x8c, 0xbd,
    0xa2, 0xb0, 0xb9, 0xbb, 0xbf, 0xff, 0xbe, 0xbc, 0x07, 0x77, 0x9d, 0x3c,
    0xd3, 0x73, 0xc6, 0x3d, 0xe9, 0xbf, 0xa3, 0x3b, 0x19, 0x7d, 0x83, 0x3d,
    0x35, 0xad, 0xab, 0x3d, 0xb2, 0x19, 0x19, 0xbe, 0x37, 0x9b, 0x90, 0x3d,
    0x8c, 0xc3, 0xc3, 0x3d, 0x9d, 0xd1, 0xb9, 0x3d, 0xf1, 0x8a, 0xf3, 0xbc,
    0x62, 0x55, 0x95, 0xbb, 0xfb, 0x13, 0xa9, 0xbd, 0xad, 0xcb, 0x8d, 0x3d,
    0x1f, 0x77, 0xa6, 0x3c, 0x78, 0x2c, 0x90, 0x3d, 0xa1, 0x5f, 0x76, 0xbd,
    0x38, 0x45, 0xeb, 0x3d, 0xec, 0xec, 0x39, 0x3d, 0x85, 0xf1, 0x0a, 0xbd,
    0x04, 0x73, 0x89, 0x3b, 0xbb, 0xf7, 0x02, 0x3e, 0x64, 0x48, 0xb9, 0x3d,
    0x40, 0xf5, 0x25, 0xbc, 0x23, 0x74, 0x27, 0xbd, 0x3e, 0x43, 0xab, 0x3d,
    0xe9, 0x17, 0xaf, 0xbd, 0x47, 0xdc, 0x0d, 0xbe, 0xd6, 0x76, 0x04, 0xbe,
    0xdc, 0x64, 0x2c, 0xbc, 0x1e, 0xb0, 0x99, 0x3d, 0xd9, 0x82, 0x0b, 0x3e,
    0xbb, 0xb3, 0x13, 0x3e, 0xf7, 0xff, 0x0f, 0xbd, 0x8b, 0x46, 0x53, 0xbc,
    0x01, 0xde, 0x5c, 0x3d, 0x73, 0xf0, 0x86, 0xbd, 0x78, 0xf2, 0x49, 0xbd,
    0xc1, 0xdd, 0xe2, 0xbd, 0x28, 0x09, 0xbe, 0xbd, 0x2c, 0xbf, 0x22, 0x3d,
    0x5c, 0x49, 0xfb, 0xbb, 0xd2, 0x30, 0x03, 0x3e, 0x05, 0x69, 0x08, 0xbc,
    0xb3, 0xd2, 0x5c, 0x3d, 0x94, 0xe5, 0x2f, 0xbd, 0x1b, 0x83, 0xe3, 0x3d,
    0xc9, 0xaa, 0xcd, 0x3d, 0x04, 0x8a, 0x71, 0x3d, 0xf8, 0x94, 0x7b, 0xbd,
    0xf8, 0xec, 0xe9, 0x3c, 0xce, 0x79, 0x1c, 0xbd, 0x00, 0x40, 0x11, 0x38,
    0x46, 0xbe, 0x22, 0xbe, 0xc5, 0xd9, 0x02, 0xbe, 0x64, 0x9e, 0xca, 0x3d,
    0xa0, 0xd1, 0x14, 0x3c, 0xf0, 0x4d, 0x51, 0x3d, 0xf8, 0x85, 0xe9, 0x3c,
    0x50, 0xaa, 0x1e, 0xbc, 0x3c, 0x23, 0xfd, 0xba, 0x58, 0xd8, 0x93, 0x3d,
    0x09, 0x53, 0xdf, 0xbd, 0x12, 0x2f, 0xcd, 0x3d, 0xbf, 0xd9, 0x92, 0xbd,
    0xd0, 0x51, 0x06, 0x3c, 0x9a, 0x07, 0xa0, 0x3d, 0xe2, 0x1a, 0xcf, 0xbd,
    0x7a, 0xa7, 0x2f, 0xbd, 0xec, 0xad, 0x99, 0xbd, 0x10, 0x18, 0x65, 0xbd,
    0x25, 0x50, 0x8d, 0xbc, 0x48, 0x80, 0x8d, 0xbc, 0xfe, 0x8e, 0xfb, 0xbd,
    0x2c, 0xd2, 0x76, 0x3d, 0x38, 0x64, 0x91, 0x3c, 0x90, 0x1c, 0x3d, 0xbc,
    0x4c, 0xab, 0x04, 0x3d, 0xd0, 0x08, 0x3d, 0xbc, 0x5c, 0xa6, 0x42, 0x3d,
    0xb1, 0x87, 0x01, 0xbe, 0x10, 0xca, 0x61, 0xbc, 0xdb, 0x55, 0xce, 0xbd,
    0xa0, 0x14, 0x21, 0x3d, 0x31, 0xe9, 0x0b, 0x3e, 0x96, 0xda, 0xdd, 0xbd,
    0xf9, 0xf5, 0xfc, 0xbd, 0xcc, 0x7a, 0x52, 0xbd, 0xa8, 0xd9, 0x13, 0x3d,
    0x74, 0xaf, 0x02, 0x3d, 0x73, 0xc1, 0xaa, 0xbd, 0x10, 0x78, 0xeb, 0xbd,
    0x91, 0xc8, 0x57, 0x3e, 0xb8, 0x6b, 0xc5, 0xbc, 0x88, 0xf0, 0x25, 0x3e,
    0xa8, 0xaa, 0xcc, 0x3d, 0x20, 0x07, 0xa8, 0x3c, 0x4c, 0xa2, 0x1c, 0x3d,
    0xf6, 0xd8, 0x91, 0x3d, 0xe6, 0x22, 0x10, 0xbd, 0x6c, 0x99, 0x0b, 0xbe,
    0x53, 0x6d, 0x12, 0xbe, 0x8e, 0x19, 0x91, 0x3d, 0xef, 0xa1, 0xec, 0xbd,
    0x4d, 0xcc, 0xac, 0x3d, 0x0c, 0xa3, 0x95, 0x3d, 0x7b, 0x7b, 0xec, 0xbd,
    0x94, 0x52, 0x4c, 0x3d, 0x90, 0x91, 0xe6, 0x3c, 0x6f, 0x55, 0x84, 0xbd,
    0x10, 0x62, 0x04, 0x3d, 0xa9, 0xa5, 0x5b, 0xbc, 0xe2, 0xb0, 0x26, 0xbd,
    0x8c, 0x76, 0x29, 0x3d, 0x74, 0x74, 0xbb, 0xbc, 0xac, 0xa4, 0x17, 0x3d,
    0x71, 0xcd, 0xf7, 0xbd, 0xa4, 0xdc, 0xc8, 0x3c, 0x5c, 0x93, 0x52, 0x3d,
    0xf4, 0x3a, 0x02, 0x3d, 0x40, 0x61, 0x45, 0x3b, 0x36, 0x1c, 0x12, 0xbd,
    0x5c, 0xba, 0x9f, 0x3d, 0x81, 0x08, 0xe8, 0xbd, 0x39, 0xd8, 0x07, 0xbe,
    0xe8, 0x26, 0x82, 0x3c, 0xef, 0xf8, 0x03, 0xbe, 0x70, 0x1d, 0x09, 0x3d,
    0x63, 0x35, 0x08, 0xbe, 0x30, 0x1a, 0x2e, 0x3c, 0x2a, 0x1d, 0x96, 0x3d,
    0xf4, 0x75, 0xce, 0xbd, 0x43, 0x81, 0x05, 0x3e, 0x06, 0x12, 0xf7, 0x3d,
    0xd6, 0x31, 0x8f, 0x3d, 0xf1, 0x59, 0xaf, 0xbd, 0xa9, 0x40, 0x09, 0xbe,
    0xd0, 0x62, 0xf5, 0xbc, 0xa6, 0x38, 0xb9, 0x3d, 0x52, 0x8e, 0xc9, 0x3d,
    0x80, 0x14, 0x3f, 0xbb, 0xaa, 0x00, 0xbd, 0xbd, 0x90, 0xa8, 0x43, 0x3d,
    0x08, 0xd1, 0xe9, 0xbc, 0x24, 0x31, 0xd6, 0x3d, 0x75, 0xa3, 0xf2, 0xbd,
    0x50, 0x18, 0x0a, 0x3c, 0xd0, 0x32, 0x5c, 0xbc, 0xb6, 0x67, 0xb2, 0x3d,
    0x98, 0xcc, 0x15, 0x3d, 0xb5, 0x81, 0xf2, 0xbd, 0x68, 0xec, 0xa1, 0x3d,
    0x80, 0x2c, 0xd7, 0xbd, 0xf0, 0xae, 0xce, 0x3d, 0x7b, 0x16, 0xfe, 0xbd,
    0x3c, 0xa6, 0x64, 0x3d, 0x70, 0x30, 0x01, 0x3c, 0x30, 0xb7, 0x2c, 0xbc,
    0x7c, 0x47, 0x8f, 0x3d, 0xd9, 0x25, 0x04, 0xbe, 0x05, 0x47, 0xf4, 0xbd,
    0xde, 0x59, 0xba, 0x3d, 0x2b, 0x83, 0xf5, 0xbd, 0x58, 0xd2, 0x76, 0x3d,
    0xc8, 0xb4, 0xaf, 0x3c, 0x8d, 0x04, 0x09, 0x3e, 0x9a, 0x05, 0x7f, 0xbd,
    0x8c, 0xc8, 0xd7, 0xbd, 0x99, 0xd9, 0xd6, 0xbd, 0x5c, 0xdc, 0x34, 0x3d,
    0x41, 0xbb, 0x85, 0xbd, 0xc2, 0x8d, 0xde, 0x3d, 0x9a, 0xb9, 0xe5, 0x3d,
    0xe6, 0xea, 0xf2, 0x3d, 0xf5, 0xc6, 0x10, 0xbe, 0x95, 0x6c, 0xd2, 0xbd,
    0x31, 0x06, 0x09, 0x3e, 0x7e, 0x30, 0x95, 0xbd, 0xb0, 0xe4, 0xa7, 0xbd,
    0x59, 0x6f, 0x90, 0x3d, 0x20, 0x77, 0x88, 0x3d, 0x80, 0x7d, 0x14, 0x3b,
    0x05, 0x15, 0x5f, 0x3b, 0xe5, 0xab, 0xb4, 0x3d, 0xd0, 0x5e, 0x50, 0xbd,
    0x71, 0xe3, 0x08, 0x3e, 0x1a, 0xa6, 0x09, 0xbd, 0x64, 0x08, 0xfd, 0x3d,
    0xde, 0xb9, 0xcb, 0x3c, 0x95, 0x76, 0x85, 0xba, 0x86, 0xcf, 0x74, 0xbd,
    0xb9, 0x28, 0xae, 0x3d, 0x30, 0x82, 0x10, 0xbe, 0x44, 0xcb, 0x0c, 0xbe,
    0xf4, 0x2f, 0x0f, 0xbe, 0x01, 0x70, 0x1b, 0x3b, 0x53, 0x47, 0x37, 0xbd,
    0x06, 0xac, 0xff, 0x3d, 0x90, 0x7c, 0x77, 0x3c, 0x00, 0x03, 0xd5, 0xbd,
    0x1c, 0x01, 0x57, 0x3d, 0xdf, 0x4c, 0x59, 0x3d, 0xd0, 0xcf, 0x83, 0x3d,
    0xcb, 0x36, 0xab, 0xbb, 0xf6, 0x43, 0x1c, 0x3d, 0xe4, 0x2d, 0xf3, 0x3d,
    0x3f, 0x23, 0xf5, 0xbd, 0xe4, 0x92, 0x72, 0xbd, 0x30, 0x43, 0x33, 0xbc,
    0xed, 0x20, 0xf6, 0x3d, 0xe0, 0x66, 0xd9, 0x3d, 0xa8, 0x2c, 0xc1, 0x3a,
    0x92, 0x55, 0x17, 0xbd, 0x64, 0xd0, 0xe0, 0xbd, 0x26, 0x35, 0x15, 0xbe,
    0x10, 0x4e, 0xd6, 0x3d, 0x8c, 0xb1, 0xc2, 0xbd, 0x63, 0x7b, 0xbc, 0x3d,
    0x17, 0xc9, 0xe3, 0xbd, 0x5b, 0x09, 0x05, 0xbe, 0x7b, 0xdb, 0x14, 0xbe,
    0xdb, 0x5c, 0x9d, 0xbd, 0x87, 0xe4, 0x73, 0x3c, 0x8b, 0x77, 0x9b, 0xbd,
    0x8a, 0xac, 0xc3, 0xbd, 0xb2, 0xf0, 0xeb, 0x3d, 0x17, 0x96, 0xc1, 0x3d,
    0xbe, 0xf5, 0xd1, 0xbb, 0x8f, 0x18, 0xbf, 0x3d, 0x1f, 0x5b, 0x17, 0xbe,
    0xb1, 0xfc, 0x23, 0xbe, 0x7d, 0x59, 0x64, 0xbd, 0xa9, 0x6d, 0xc6, 0xbd,
    0x12, 0xd9, 0x60, 0xbd, 0xf4, 0x42, 0x87, 0x3c, 0xce, 0x51, 0xae, 0x3d,
    0x3d, 0x49, 0x11, 0xbe, 0x0f, 0x06, 0xd0, 0x3d, 0xd9, 0xe7, 0x74, 0xbd,
    0xac, 0x5c, 0x77, 0x3c, 0xb4, 0xc5, 0xde, 0xbd, 0x2c, 0x4c, 0xc4, 0x3d,
    0x56, 0x8f, 0xac, 0xbc, 0x07, 0x2e, 0x58, 0x3d, 0x65, 0x5d, 0x47, 0xbc,
    0x29, 0x78, 0x09, 0xbe, 0x64, 0x47, 0x84, 0xbd, 0x0c, 0x84, 0xe1, 0xbd,
    0xe1, 0xb8, 0xcd, 0x3d, 0x90, 0x71, 0x2e, 0xbd, 0x69, 0xbb, 0x01, 0x3e,
    0xeb, 0xff, 0xbc, 0xbc, 0xf7, 0x74, 0xc0, 0x3d, 0x11, 0xd5, 0x4d, 0x3d,
    0xf5, 0x28, 0xda, 0x3d, 0xa1, 0x06, 0x0d, 0xbe, 0x60, 0x83, 0x7d, 0x3d,
    0xb7, 0x4a, 0x97, 0x3d, 0x13, 0x3e, 0xc2, 0x3b, 0x8d, 0x87, 0xe9, 0x3c,
    0x4f, 0xcf, 0x98, 0xbb, 0x79, 0x93, 0x54, 0x3d, 0xe0, 0xa5, 0x88, 0x3d,
    0xd3, 0x1c, 0x92, 0x3c, 0x10, 0xc3, 0x56, 0xbd, 0xb4, 0x0e, 0x36, 0xbd,
    0xe9, 0xb4, 0xd1, 0x3d, 0x9b, 0x65, 0xb2, 0x3d, 0x59, 0x43, 0xdf, 0x3a,
    0x54, 0xc5, 0x09, 0x3e, 0x14, 0x74, 0xe0, 0xbd, 0x95, 0x85, 0xb1, 0x3d,
    0x9b, 0xe5, 0x55, 0xbd, 0x72, 0xda, 0x7a, 0x3d, 0x91, 0x5b, 0xeb, 0xbd,
    0xee, 0x2d, 0x0d, 0xbe, 0xdb, 0xc3, 0xde, 0xbc, 0x91, 0xf8, 0x6f, 0x3c,
    0x03, 0x4e, 0x88, 0xbd, 0x40, 0xb9, 0xd8, 0xbd, 0xd5, 0x2f, 0x0f, 0xbe,
    0x7f, 0xa3, 0xc3, 0x3d, 0x65, 0x53, 0xbd, 0xbd, 0x0f, 0xbe, 0x2f, 0xbd,
    0xa0, 0x63, 0x8f, 0xbd, 0xc4, 0x58, 0x53, 0x3a, 0x26, 0xa4, 0x0f, 0xbe,
    0x79, 0xf9, 0xd2, 0xbd, 0x1a, 0x54, 0x08, 0xbe, 0xce, 0x9e, 0xb7, 0x3d,
    0x65, 0x38, 0x34, 0x3c, 0x02, 0xf4, 0xd5, 0xbd, 0x2b, 0x45, 0x38, 0xbd,
    0xea, 0x74, 0x03, 0x3d, 0xe5, 0x8e, 0x06, 0xbd, 0xfe, 0x24, 0x11, 0xbe,
    0xfe, 0x56, 0x81, 0x3d, 0x24, 0x3a, 0xa1, 0xbd, 0x30, 0x96, 0x83, 0x3d,
    0x17, 0x56, 0x03, 0xbe, 0x96, 0xe7, 0xbf, 0x3d, 0x3a, 0xf2, 0x82, 0xbd,
    0xd2, 0x2e, 0x4c, 0x3d, 0x39, 0x31, 0x72, 0xbd, 0x21, 0x9e, 0x98, 0xbc,
    0xb7, 0x25, 0x9f, 0xbd, 0xe1, 0xb6, 0xfa, 0xbd, 0xee, 0xf2, 0xaf, 0x3d,
    0x7e, 0xa5, 0x90, 0xbd, 0x0d, 0x38, 0xef, 0xbd, 0xfa, 0x87, 0xe0, 0x3c,
    0xc0, 0x10, 0xd7, 0xbc, 0xec, 0xab, 0x90, 0x3d, 0xd0, 0xc0, 0xda, 0xbc,
    0x4f, 0x9c, 0xa1, 0x3c, 0xd4, 0xe5, 0x3c, 0x3d, 0x08, 0x46, 0x3c, 0xbd,
    0xab, 0x94, 0x02, 0xbe, 0x40, 0x00, 0x6d, 0x3c, 0x88, 0x9a, 0x28, 0xbd,
    0xaa, 0x7e, 0xc8, 0x3d, 0x1d, 0xcd, 0x24, 0xbe, 0xd0, 0x45, 0x4e, 0xbd,
    0xee, 0x8d, 0x3e, 0x3d, 0x6d, 0x07, 0xa1, 0xbc, 0x71, 0x99, 0x0c, 0xbe,
    0x8a, 0x6f, 0xd2, 0xbd, 0x96, 0xdb, 0xd5, 0x3d, 0xf4, 0x76, 0xb4, 0x3d,
    0x94, 0x44, 0x5c, 0x3d, 0x79, 0xc5, 0xb9, 0xbd, 0xc4, 0xd1, 0x54, 0xbd,
    0x18, 0x51, 0x6b, 0xbd, 0xfe, 0x65, 0x9f, 0x3d, 0x4c, 0xcc, 0x0e, 0x3d,
    0x20, 0x12, 0xc8, 0xbd, 0xf8, 0x31, 0x79, 0x3d, 0xd1, 0x02, 0xa9, 0xbc,
    0x40, 0xa6, 0xa7, 0xbb, 0x49, 0x2e, 0x63, 0xbc, 0x5e, 0x88, 0x0b, 0xbd,
    0x4a, 0x33, 0xe0, 0xbd, 0x12, 0x2f, 0x5f, 0xbd, 0x28, 0xcc, 0x8e, 0xbd,
    0x7a, 0x20, 0xda, 0xbd, 0x60, 0xd8, 0x23, 0xbd, 0x31, 0xe0, 0x09, 0xbe,
    0x29, 0xa4, 0x04, 0xbe, 0x2f, 0xb1, 0x88, 0xbd, 0xae, 0xff, 0xc7, 0xbd,
    0x07, 0x1e, 0xb2, 0xbd, 0xd3, 0x2a, 0x90, 0xbc, 0x68, 0x08, 0x76, 0x3d,
    0xf4, 0x85, 0xc1, 0x3d, 0x0e, 0xa5, 0xd5, 0x3d, 0x9c, 0x27, 0x7b, 0x3d,
    0x3e, 0x7c, 0xd1, 0xbd, 0x9c, 0x9c, 0x8f, 0x3d, 0x0c, 0xe0, 0x01, 0xbe,
    0x92, 0x79, 0xa8, 0xbd, 0xa4, 0xf7, 0xe4, 0xbd, 0x79, 0xf6, 0xe7, 0x3d,
    0xf8, 0x7f, 0xf9, 0x3c, 0x90, 0x94, 0x50, 0x3d, 0x52, 0x84, 0x33, 0xbd,
    0x30, 0x72, 0x05, 0xbc, 0xf6, 0x60, 0xf2, 0xbd, 0x84, 0x47, 0xb8, 0xbd,
    0x49, 0x2a, 0xa9, 0xbc, 0x9d, 0x79, 0xc5, 0xbd, 0x1c, 0x60, 0xfe, 0xbc,
    0xca, 0xbc, 0xee, 0x3d, 0xee, 0xfc, 0xf3, 0x3d, 0xa8, 0x08, 0xbe, 0x3c,
    0x2c, 0x51, 0x9f, 0xbd, 0x7d, 0x28, 0x8f, 0xbd, 0x00, 0x57, 0xf0, 0x3c,
    0x1c, 0xd4, 0xc2, 0x3d, 0xbe, 0x12, 0x9c, 0x3d, 0xc0, 0x54, 0xba, 0x3b,
    0xd6, 0xbe, 0xcf, 0xbd, 0xa0, 0x67, 0x8e, 0xbc, 0x00, 0xf0, 0x9f, 0x3b,
    0xe2, 0xa7, 0x69, 0x3e, 0x9c, 0xa7, 0x53, 0xbd, 0x22, 0xae, 0x58, 0xbd,
    0x18, 0x61, 0x6c, 0xbd, 0xa2, 0x4a, 0xbb, 0xbd, 0x5c, 0x28, 0x18, 0x3d,
    0x00, 0xce, 0x47, 0x3a, 0x94, 0xc8, 0x2e, 0x3d, 0x1d, 0xfb, 0x06, 0x3e,
    0x80, 0x1d, 0xae, 0xbc, 0xdc, 0xcc, 0x54, 0x3d, 0x5c, 0x0f, 0x0c, 0xbe,
    0xbe, 0xed, 0x91, 0x3d, 0xc0, 0x69, 0x0b, 0xbd, 0xf8, 0x51, 0xf5, 0xbc,
    0xc7, 0xad, 0xf0, 0xbd, 0xd0, 0x1f, 0x97, 0x3c, 0x48, 0xb3, 0x37, 0xbd,
    0x1c, 0xa6, 0xab, 0xbc, 0xd9, 0x12, 0x97, 0xbd, 0xc3, 0x7e, 0x8a, 0xbd,
    0x33, 0x06, 0x86, 0xbd, 0x10, 0x0a, 0x09, 0xbd, 0xd8, 0xd5, 0xc0, 0x3d,
    0x10, 0xd6, 0xa9, 0xbd, 0xbd, 0x78, 0x13, 0x3e, 0x0e, 0xc8, 0x99, 0xbd,
    0xda, 0xad, 0xc6, 0xbd, 0xcb, 0x50, 0x61, 0x3e, 0x4e, 0xf9, 0xb4, 0xbd,
    0x20, 0x7a, 0x66, 0xbc, 0xd1, 0xaa, 0xb2, 0xbd, 0x6a, 0xb9, 0xc1, 0x3d,
    0xf2, 0x66, 0xee, 0x3d, 0x98, 0x76, 0xfc, 0xbd, 0x36, 0x82, 0x82, 0x3d,
    0xd4, 0xb4, 0x8c, 0x3d, 0x96, 0x0c, 0x59, 0xbd, 0x3e, 0x35, 0xcc, 0xbd,
    0x04, 0x2e, 0x83, 0xbd, 0x49, 0xcc, 0xae, 0xbd, 0xde, 0xa7, 0xe4, 0x3d,
    0x78, 0x44, 0xac, 0x3d, 0x13, 0x95, 0x0c, 0xbe, 0xad, 0x6c, 0xe2, 0x3b,
    0xd5, 0x69, 0x0b, 0x3e, 0x12, 0x74, 0xd8, 0x3d, 0xe4, 0xda, 0xda, 0xbc,
    0x5d, 0xa9, 0x0b, 0x3e, 0x04, 0xee, 0xc0, 0xbd, 0xf2, 0x6f, 0xbd, 0xbd,
    0x84, 0x5d, 0xf1, 0xbb, 0x99, 0x50, 0xff, 0x3c, 0x54, 0x6b, 0x70, 0xbc,
    0x95, 0x08, 0xdb, 0xbd, 0x3b, 0x21, 0x1d, 0x3e, 0x29, 0x1c, 0x04, 0x3e,
    0x14, 0x95, 0x39, 0xbd, 0x8a, 0x2e, 0x05, 0x3d, 0x7a, 0x7d, 0xdb, 0x3d,
    0x2d, 0x9e, 0xe9, 0xbd, 0x0e, 0x7c, 0xb6, 0x3c, 0xec, 0xe4, 0x2d, 0x3c,
    0xac, 0xf9, 0x0b, 0xbd, 0xea, 0xdb, 0x7e, 0xbb, 0xce, 0x22, 0xc6, 0xbd,
    0xfb, 0x72, 0xde, 0x3d, 0x86, 0xbc, 0xe7, 0xbd, 0x1b, 0xe0, 0xdd, 0xbd,
    0x6d, 0x52, 0xb6, 0x3c, 0xbe, 0x0c, 0x06, 0x3e, 0x11, 0xaf, 0xe9, 0xbd,
    0x64, 0xce, 0x65, 0xbc, 0xa8, 0x4d, 0x23, 0xba, 0x61, 0x5e, 0x11, 0xbe,
    0x3e, 0x8c, 0x39, 0x3d, 0x43, 0x6a, 0xcb, 0xbd, 0x1f, 0xab, 0x95, 0x3d,
    0xfa, 0x73, 0x57, 0xbc, 0xa4, 0xa5, 0x91, 0xbc, 0x64, 0xaf, 0x6a, 0xba,
    0x65, 0xd3, 0xd8, 0x3b, 0xe3, 0xbb, 0x7a, 0xbc, 0x23, 0x4f, 0x52, 0xbd,
    0x80, 0x73, 0x07, 0xbd, 0xd9, 0x0d, 0xb4, 0x3c, 0x91, 0xc9, 0x8c, 0xbd,
    0x7b, 0x5b, 0x6d, 0xbd, 0x02, 0x9d, 0x39, 0x3c, 0x83, 0xb7, 0x10, 0xbd,
    0x26, 0xfc, 0x74, 0x3d, 0x3d, 0x11, 0xf6, 0xbd, 0x09, 0xde, 0x89, 0x3d,
    0x23, 0x61, 0x12, 0xbd, 0xe3, 0x16, 0x02, 0x3e, 0x7a, 0xa8, 0xe5, 0xbd,
    0x36, 0x57, 0xce, 0x3d, 0x76, 0x51, 0x82, 0xbc, 0x61, 0xa8, 0xee, 0x3c,
    0xd1, 0x26, 0x3b, 0xbd, 0xdc, 0xff, 0x02, 0x3d, 0x16, 0xa8, 0x61, 0x3d,
    0x92, 0x82, 0x82, 0x3d, 0xde, 0xac, 0x11, 0xbb, 0xb6, 0x06, 0x84, 0x3b,
    0x2a, 0x76, 0xec, 0xbc, 0x25, 0x66, 0xf0, 0xbd, 0xa7, 0xbc, 0xed, 0x3d,
    0x04, 0x30, 0xb9, 0xbd, 0x90, 0xc2, 0xec, 0xbd, 0x1e, 0x3f, 0xb9, 0x3d,
    0x61, 0x60, 0xcf, 0xbd, 0xff, 0xad, 0xe6, 0x3d, 0x3e, 0x10, 0xd5, 0xbd,
    0x55, 0xe2, 0x7b, 0x3d, 0x29, 0x3b, 0xc7, 0xbd, 0x44, 0xc4, 0xe5, 0x3d,
    0x6f, 0x90, 0x11, 0x3e, 0x07, 0xda, 0xc4, 0x3c, 0x44, 0x74, 0xc7, 0xbd,
    0x98, 0x49, 0x8d, 0xbd, 0x39, 0xc7, 0x14, 0xbd, 0x5b, 0xfb, 0xbc, 0x3d,
    0x17, 0xbf, 0x29, 0xbd, 0xa2, 0x5f, 0x12, 0x3e, 0x6b, 0xc7, 0xb2, 0xbd,
    0xeb, 0xd2, 0xbc, 0xbd, 0x2f, 0x71, 0xe0, 0x3d, 0x73, 0x32, 0xdf, 0x3d,
    0x6e, 0x3a, 0x80, 0x3d, 0x5d, 0x98, 0xc8, 0x3d, 0x89, 0xd7, 0x08, 0xbe,
    0x28, 0xd2, 0xad, 0xbd, 0x8f, 0xb7, 0xcf, 0xbd, 0x97, 0x3e, 0x5e, 0x3d,
    0x35, 0xa1, 0xe1, 0x3d, 0x45, 0x5e, 0x01, 0xbd, 0x0a, 0xff, 0xa2, 0x3d,
    0x1e, 0x5a, 0xe7, 0x3d, 0x0c, 0x6a, 0x0f, 0xbe, 0x99, 0x54, 0x22, 0xbd,
    0x39, 0x43, 0x83, 0x3d, 0x02, 0x36, 0xf0, 0x3c, 0x8d, 0xa7, 0xae, 0xbd,
    0x6b, 0x6e, 0xe5, 0xbd, 0x96, 0x22, 0x91, 0x3d, 0x78, 0x0b, 0x4e, 0x3d,
    0xc3, 0x49, 0x74, 0xbd, 0x4a, 0xc2, 0xd1, 0xbb, 0xd6, 0xf8, 0xc7, 0x3d,
    0x05, 0x3f, 0x92, 0xbd, 0xb0, 0x32, 0xb4, 0x3d, 0x14, 0x80, 0xd0, 0x3c,
    0x05, 0x78, 0x47, 0x3d, 0x46, 0xb6, 0x55, 0xbd, 0x2a, 0x21, 0x87, 0x3d,
    0xa4, 0x19, 0xa6, 0xbd, 0x58, 0x0b, 0x60, 0xbd, 0x19, 0x64, 0x7d, 0x3c,
    0xe9, 0xac, 0x1a, 0xbd, 0x70, 0x79, 0x08, 0x3e, 0x9b, 0x4f, 0xa5, 0xbd,
    0xec, 0x4f, 0x61, 0xbd, 0xf3, 0x53, 0xa0, 0x3c, 0x1a, 0xe2, 0x0b, 0xbc,
    0x8c, 0xc9, 0xe1, 0x3d, 0x84, 0x13, 0xf0, 0x3d, 0x72, 0x53, 0x25, 0x3d,
    0x3b, 0x75, 0xa7, 0xbb, 0xa7, 0xa9, 0xdd, 0x3d, 0x1a, 0x10, 0xe9, 0xbb,
    0xad, 0x35, 0x0f, 0x3e, 0x49, 0x83, 0xe5, 0x3d, 0x90, 0x08, 0x05, 0x3e,
    0xcf, 0x59, 0x33, 0xbc, 0x90, 0x4e, 0xe8, 0x3c, 0xc8, 0x84, 0x36, 0xbd,
    0x54, 0x3c, 0x21, 0x3d, 0x2f, 0x4c, 0x6e, 0x3d, 0xa6, 0xfa, 0x41, 0xbd,
    0xe0, 0x8c, 0xb6, 0x3d, 0x1f, 0x32, 0x0a, 0x3e, 0xbb, 0x32, 0x0f, 0xbe,
    0x00, 0x20, 0x56, 0x3b, 0x8c, 0x3c, 0x11, 0x3e, 0xf8, 0xc0, 0x8f, 0xbd,
    0x00, 0x91, 0xf3, 0x3a, 0xa4, 0x62, 0x9d, 0xbc, 0x9d, 0x1e, 0x00, 0xbe,
    0x24, 0xc3, 0x0d, 0x3d, 0xa8, 0xeb, 0xc0, 0xbd, 0xad, 0xe5, 0x04, 0x3e,
    0x5c, 0xd4, 0x7e, 0xbd, 0xa7, 0x4c, 0xf1, 0xbd, 0x21, 0x93, 0xb4, 0xbd,
    0xb2, 0xbd, 0x12, 0xbd, 0xea, 0xe2, 0x21, 0xbd, 0xef, 0xc4, 0x06, 0x3d,
    0x7c, 0xeb, 0x99, 0x3d, 0xe0, 0x01, 0xd3, 0x3c, 0x68, 0xc5, 0x37, 0x3d,
    0x00, 0x00, 0x3e, 0x3b, 0x0d, 0x61, 0x00, 0xbe, 0xfc, 0x35, 0x5a, 0xbd,
    0xd2, 0xc4, 0xdf, 0x3d, 0x80, 0x63, 0x99, 0x3d, 0x2c, 0x68, 0x60, 0xbd,
    0x4c, 0xf7, 0xa0, 0xbd, 0xc8, 0x2e, 0xc1, 0xbd, 0xcf, 0xdc, 0x87, 0xbd,
    0x6a, 0xa9, 0xa9, 0x3d, 0x86, 0x43, 0xd1, 0x3d, 0x50, 0x80, 0xf4, 0x3c,
    0xc9, 0xcb, 0x01, 0xbe, 0xeb, 0x6c, 0x0b, 0xbe, 0x06, 0x26, 0xd5, 0x3d,
    0x75, 0xa5, 0x11, 0x3e, 0x6b, 0x70, 0x34, 0x3c, 0xd1, 0x7d, 0x07, 0x3e,
    0x3c, 0x6b, 0xc5, 0xbc, 0x8c, 0xc2, 0xa8, 0x3d, 0x90, 0x74, 0xb6, 0x3d,
    0x88, 0xc9, 0x9d, 0xbd, 0x5a, 0xe9, 0x11, 0xbd, 0xbf, 0x73, 0x62, 0x3d,
    0x19, 0xb8, 0x47, 0xbb, 0xf6, 0xae, 0x96, 0xbd, 0x80, 0x7a, 0x7f, 0x3b,
    0x76, 0xd3, 0xea, 0x3d, 0xaa, 0x7b, 0xb2, 0xbd, 0xcc, 0x68, 0x59, 0x3d,
    0x66, 0x4d, 0xe0, 0x3d, 0x36, 0xbb, 0xa2, 0x3d, 0xd9, 0x4b, 0xa2, 0xbd,
    0x40, 0x26, 0xc4, 0xbb, 0xb2, 0x3a, 0xb3, 0x3d, 0x2a, 0x9a, 0xf0, 0xbd,
    0xd4, 0x74, 0x38, 0x3d, 0x70, 0x8e, 0x79, 0xbd, 0x8e, 0xe7, 0xf2, 0xbd,
    0x90, 0x41, 0x50, 0xbc, 0x6e, 0xe1, 0xf7, 0x3d, 0x08, 0x3f, 0xef, 0xbc,
    0x80, 0xf8, 0x6f, 0xbb, 0x7e, 0xbc, 0x02, 0xbe, 0x80, 0x53, 0xe0, 0x3a,
    0x00, 0x98, 0x7b, 0x3a, 0xe9, 0x90, 0xe7, 0xbd, 0x54, 0x02, 0x5a, 0x3d,
    0x56, 0xf3, 0x7e, 0xbd, 0x5b, 0x3f, 0x02, 0x3e, 0xc4, 0xf0, 0x24, 0x3d,
    0x6e, 0xfc, 0x86, 0x3d, 0x49, 0x9d, 0x03, 0x3e, 0xd5, 0xae, 0xfd, 0xbd,
    0x39, 0xbd, 0x0f, 0x3e, 0x2d, 0x45, 0xaf, 0xbd, 0x57, 0x63, 0x01, 0x3e,
    0x20, 0x90, 0x96, 0x3d, 0x71, 0x8f, 0x0d, 0xbe, 0x87, 0x62, 0xd6, 0xbd,
    0xac, 0x42, 0xa8, 0x3d, 0x4c, 0x94, 0xbb, 0x3d, 0x2d, 0xea, 0x0c, 0xbe,
    0x42, 0x6c, 0x9e, 0x3d, 0x09, 0x80, 0x0a, 0x3e, 0xf9, 0xc8, 0x0e, 0x3e,
    0x3e, 0x30, 0x8e, 0x3d, 0xf0, 0x94, 0xaf, 0x3c, 0x5d, 0x2b, 0x01, 0xbe,
    0x62, 0x1f, 0xfc, 0x3d, 0x14, 0xaf, 0x38, 0x3d, 0xca, 0x79, 0xd5, 0xbd,
    0x65, 0x31, 0x0e, 0x3e, 0xf4, 0xfa, 0xb9, 0xbc, 0xbe, 0x1b, 0xc1, 0x3d,
    0x7e, 0x70, 0xd7, 0x3d, 0x2e, 0xdb, 0x30, 0xbd, 0xff, 0x20, 0x03, 0x3e,
    0xa0, 0x96, 0xc2, 0xbc, 0x07, 0xff, 0x09, 0x3e, 0xfd, 0xa4, 0x86, 0xbd,
    0x67, 0xef, 0x02, 0x3e, 0x40, 0xd1, 0x23, 0xbc, 0xf4, 0x2c, 0xc4, 0xbc,
    0x66, 0x7b, 0xc3, 0x3d, 0x9d, 0xef, 0xe5, 0xbd, 0x76, 0x24, 0xc6, 0x3d,
    0x80, 0x17, 0x77, 0x3b, 0x81, 0xe7, 0xfe, 0xbd, 0x38, 0xd4, 0xc6, 0x3d,
    0x5a, 0x35, 0x20, 0xbd, 0x0a, 0x65, 0xb2, 0x3d, 0x2a, 0xf5, 0x53, 0xbd,
    0xbb, 0xd4, 0x02, 0x3e, 0xe8, 0x04, 0xb2, 0xbc, 0xb0, 0x44, 0x02, 0xbd,
    0xd4, 0x02, 0x22, 0x3d, 0x08, 0x59, 0x27, 0x3d, 0x78, 0xe2, 0x83, 0x3c,
    0xb4, 0x1f, 0xd1, 0xbd, 0x8d, 0xfb, 0x1d, 0x3e, 0xc3, 0xb5, 0x0c, 0x3e,
    0xd0, 0x58, 0x82, 0xbc, 0x78, 0xee, 0x01, 0xbe, 0xee, 0x5e, 0x54, 0xbd,
    0x90, 0x83, 0x5d, 0xbd, 0xc2, 0x78, 0x18, 0xbe, 0xd7, 0xf0, 0xa3, 0xbd,
    0xde, 0x2b, 0x67, 0x3c, 0x3f, 0x9a, 0x15, 0xbe, 0x48, 0xcb, 0xc4, 0x3d,
    0xf7, 0x90, 0x82, 0x3d, 0xce, 0x4e, 0xd4, 0xbd, 0xbb, 0x6a, 0x86, 0xbd,
    0x4d, 0xf4, 0x6a, 0xbd, 0x75, 0xfe, 0x24, 0x3d, 0x46, 0xb2, 0xf0, 0x3d,
    0x49, 0x84, 0x97, 0x3c, 0xc3, 0x4b, 0x71, 0xbd, 0x9f, 0x03, 0xf4, 0x3d,
    0x5d, 0xa2, 0x92, 0x3d, 0xc2, 0x81, 0x02, 0xbe, 0xe5, 0xaa, 0x88, 0x3d,
    0xab, 0xbf, 0x00, 0xbe, 0xfb, 0x1b, 0x16, 0x3d, 0x56, 0x49, 0x04, 0x3e,
    0xf3, 0x2d, 0x01, 0xbc, 0x5b, 0x91, 0xdd, 0xbd, 0x5f, 0x04, 0xb1, 0xbc,
    0x6a, 0x8a, 0x04, 0x3e, 0x93, 0x38, 0xab, 0x3c, 0xba, 0x86, 0xc5, 0x3d,
    0x3d, 0xce, 0x0a, 0x3e, 0x09, 0x73, 0xdc, 0xbb, 0xed, 0x12, 0x9c, 0xbc,
    0xc6, 0xed, 0x56, 0xbd, 0x46, 0x78, 0x0a, 0xbe, 0x38, 0x47, 0xbe, 0xbd,
    0x46, 0x76, 0x1c, 0xbe, 0x1b, 0x44, 0xb0, 0x3d, 0x3c, 0x20, 0xda, 0x3c,
    0x32, 0x6b, 0x21, 0xbe, 0xcd, 0xfe, 0xf9, 0xbd, 0x24, 0x32, 0x75, 0x3d,
    0xe2, 0xe4, 0x09, 0xbe, 0x28, 0xca, 0xe1, 0x3d, 0x09, 0x6f, 0xfa, 0xbc,
    0x42, 0xbc, 0xde, 0xbd, 0x29, 0xdf, 0xa6, 0x3d, 0x5e, 0x12, 0xb2, 0xbd,
    0xb2, 0x75, 0xe0, 0x3d, 0xee, 0xd6, 0x03, 0xbe, 0x8e, 0x79, 0x03, 0x3e,
    0xc1, 0xc7, 0x08, 0xbe, 0x66, 0x2d, 0x98, 0xbd, 0xd8, 0xe3, 0x97, 0xbd,
    0x5a, 0x75, 0xa0, 0x3d, 0x2b, 0x1f, 0xba, 0x3a, 0x62, 0xc2, 0x37, 0x3d,
    0x55, 0xe8, 0x87, 0xbd, 0x98, 0xca, 0xa2, 0xbc, 0xa3, 0x5a, 0x69, 0x3c,
    0x97, 0x47, 0x05, 0x3d, 0x00, 0xeb, 0xa2, 0x3d, 0xfa, 0x63, 0xd2, 0x3d,
    0x11, 0x62, 0x98, 0x3d, 0xe6, 0xea, 0x0c, 0x3e, 0x9e, 0x48, 0x8f, 0xbd,
    0xce, 0xca, 0x02, 0xbe, 0x27, 0xfc, 0x97, 0xba, 0x23, 0xa6, 0x63, 0x3d,
    0x8f, 0x1f, 0x57, 0xbd, 0x49, 0x10, 0x23, 0xbd, 0xaf, 0xe1, 0x0a, 0x3e,
    0xa4, 0xdb, 0xf8, 0x3d, 0xf1, 0xad, 0x2a, 0x3d, 0xe2, 0xbd, 0x4f, 0x3d,
    0xa5, 0x46, 0xee, 0xbd, 0x59, 0x94, 0x51, 0xbd, 0x27, 0xf9, 0x04, 0xbe,
    0x21, 0x1b, 0x71, 0x3d, 0x15, 0xfc, 0x99, 0xbd, 0x7b, 0x3c, 0x88, 0x3d,
    0xcb, 0xcd, 0x85, 0xbc, 0x0e, 0x8b, 0xb5, 0x3d, 0xc5, 0x3b, 0xc4, 0xbd,
    0xad, 0xbe, 0x85, 0xbd, 0x62, 0x3d, 0xe2, 0x3d, 0xa5, 0x9f, 0xa7, 0x3d,
    0xf9, 0x17, 0x14, 0xbd, 0x92, 0x2c, 0xed, 0xbd, 0x98, 0xda, 0x22, 0xbd,
    0xb3, 0x90, 0xa7, 0xbd, 0x80, 0xb9, 0x81, 0x3d, 0x17, 0xbf, 0x2c, 0x3d,
    0x61, 0xa6, 0xc8, 0x3d, 0x4d, 0x8a, 0xc6, 0x3d, 0x38, 0xba, 0x12, 0x3d,
    0x60, 0xb7, 0x06, 0xbd, 0x89, 0xfb, 0x96, 0xbd, 0xca, 0xcd, 0xb0, 0x3d,
    0x43, 0xc1, 0x83, 0x3d, 0xef, 0x01, 0xd9, 0x3d, 0xa1, 0x0e, 0xdd, 0xbd,
    0x34, 0x46, 0x06, 0xbc, 0x28, 0xfd, 0x08, 0x3e, 0xec, 0xc8, 0x03, 0x3d,
    0x19, 0xdd, 0x0d, 0xbe, 0xbd, 0x7e, 0xb6, 0x3c, 0x4c, 0xda, 0xb2, 0x3d,
    0x90, 0xde, 0x0c, 0xbb, 0x1e, 0xbb, 0xe5, 0x3d, 0x40, 0xfc, 0x12, 0xbe,
    0x52, 0x35, 0x00, 0x3e, 0x46, 0xe8, 0xb3, 0x3b, 0x6b, 0x86, 0x11, 0x3c,
    0xe0, 0xe6, 0xdf, 0x3d, 0xf4, 0xe7, 0xea, 0x3d, 0xea, 0x63, 0x80, 0x3c,
    0xed, 0xc7, 0xf6, 0xbd, 0x4f, 0x48, 0x8f, 0x3c, 0x53, 0x80, 0xda, 0x3d,
    0xf7, 0x09, 0xba, 0x3d, 0x04, 0x5d, 0xe5, 0xbc, 0xdc, 0x52, 0x8c, 0x3d,
    0xfc, 0x41, 0x73, 0x3d, 0xf2, 0xd9, 0xdc, 0xbc, 0xaf, 0x08, 0xf9, 0xbc,
    0xe0, 0xe4, 0xdb, 0x3c, 0x53, 0x64, 0xeb, 0x3c, 0x84, 0xed, 0x24, 0xbc,
    0x93, 0xde, 0x9a, 0xbd, 0xb3, 0xc6, 0xa5, 0x3d, 0x5b, 0x1d, 0xfc, 0xbd,
    0x8e, 0x24, 0xcd, 0xbd, 0x00, 0xa2, 0x97, 0xb9, 0x8a, 0x28, 0xcb, 0x3d,
    0x6e, 0x45, 0x7f, 0xbd, 0xca, 0x9e, 0xd3, 0xbd, 0xd0, 0x7d, 0xf1, 0xbc,
    0x26, 0xd5, 0xd2, 0xbd, 0x54, 0xb8, 0xfd, 0xbc, 0x44, 0xa8, 0xaa, 0x3d,
    0xab, 0xb6, 0x12, 0x3e, 0xaa, 0xe3, 0xbf, 0xbd, 0x40, 0xfa, 0xb4, 0xbb,
    0xc0, 0x74, 0xe2, 0xbb, 0xed, 0xe1, 0x07, 0xbd, 0x04, 0xc0, 0x34, 0xbd,
    0x50, 0x21, 0x19, 0x3d, 0xdd, 0xb3, 0x04, 0xbe, 0xaf, 0x63, 0xcd, 0x3d,
    0x1d, 0x8d, 0xd0, 0xbd, 0xe3, 0x62, 0x83, 0xbd, 0x1d, 0x94, 0x6d, 0x3d,
    0xc0, 0x0e, 0xe6, 0x3c, 0x36, 0xc4, 0xf6, 0x3d, 0x00, 0x34, 0x9d, 0xb9,
    0x4a, 0x81, 0x46, 0x3d, 0x20, 0xab, 0x02, 0xbc, 0x60, 0x5b, 0xbe, 0xbc,
    0x1a, 0x23, 0xf0, 0x3d, 0xa4, 0x82, 0x15, 0x3d, 0xe2, 0x27, 0xa7, 0x3d,
    0x25, 0x35, 0x0e, 0xbe, 0x58, 0xd5, 0x23, 0x3d, 0x3e, 0x5b, 0xea, 0xbd,
    0x92, 0x8b, 0x96, 0xbc, 0xc4, 0xdc, 0xb9, 0xbc, 0xbd, 0x88, 0x0d, 0x3d,
    0x6e, 0x4c, 0xcf, 0xbd, 0x12, 0x82, 0x80, 0xbd, 0x70, 0x6c, 0x6c, 0xbc,
    0xda, 0x88, 0x62, 0xbc, 0xb8, 0x39, 0x87, 0x3d, 0x40, 0x2c, 0x8b, 0xbc,
    0xd2, 0xc7, 0xe8, 0x3d, 0xb8, 0x29, 0x3c, 0xbd, 0x4a, 0x28, 0x36, 0xbd,
    0xcb, 0xe3, 0x0a, 0x3e, 0x46, 0xff, 0xc9, 0x3c, 0x47, 0x23, 0x6d, 0x3d,
    0xde, 0x48, 0xf1, 0x3d, 0xc6, 0x54, 0xc6, 0x3d, 0xd8, 0x62, 0x82, 0xbc,
    0xa8, 0xda, 0xf6, 0xbd, 0x4e, 0x74, 0x11, 0xbe, 0x1c, 0x07, 0x50, 0x3d,
    0x30, 0x90, 0x6d, 0x3d, 0x90, 0x91, 0x6e, 0x3d, 0x80, 0x33, 0x7c, 0x3d,
    0x45, 0x21, 0x01, 0x3d, 0x26, 0x6f, 0xfb, 0xbd, 0x99, 0x7b, 0x12, 0xbe,
    0x18, 0xea, 0x5b, 0x3d, 0x18, 0xb9, 0x00, 0x3d, 0x22, 0x77, 0xef, 0x3d,
    0xe6, 0xb0, 0x7c, 0xbd, 0x22, 0xcb, 0x3e, 0x3d, 0x38, 0x66, 0xf5, 0x3c,
    0xa0, 0x8e, 0x9e, 0xbb, 0xec, 0x30, 0x38, 0x3d, 0x30, 0x9e, 0x11, 0x3c,
    0x2c, 0x0a, 0xc9, 0x3d, 0xae, 0x7c, 0x25, 0x3e, 0x74, 0x66, 0xd8, 0x3d,
    0xd6, 0x9b, 0xd8, 0xbd, 0x62, 0xd7, 0x2e, 0xbd, 0xa1, 0x8f, 0x9c, 0xbd,
    0x66, 0x8e, 0xff, 0x3d, 0x00, 0xf6, 0xb0, 0xb9, 0x06, 0x3a, 0x31, 0xbd,
    0x62, 0x2b, 0x0d, 0xbe, 0x87, 0x80, 0x6c, 0x3d, 0x98, 0x14, 0xbc, 0xbd,
    0x95, 0x3c, 0x0c, 0x3e, 0x88, 0x40, 0xd7, 0xbd, 0x00, 0x25, 0xfb, 0xbd,
    0x77, 0xfa, 0x0c, 0x3e, 0x00, 0xca, 0x43, 0x3a, 0x80, 0x45, 0xa1, 0x3c,
    0x1f, 0xe7, 0x0c, 0x3e, 0x00, 0x12, 0xf9, 0xb9, 0x2e, 0xe9, 0xd6, 0xbd,
    0x67, 0x59, 0xe5, 0xbd, 0x3d, 0x06, 0x13, 0xbe, 0x77, 0xfe, 0x07, 0x3e,
    0x2c, 0x4e, 0xf4, 0xbd, 0xd8, 0x8a, 0x6c, 0x3d, 0x51, 0x3d, 0xba, 0xbd,
    0x80, 0x19, 0x41, 0xbb, 0x98, 0xf0, 0xae, 0x3c, 0x60, 0x5a, 0x9f, 0x3b,
    0x90, 0x42, 0xc4, 0x3c, 0x58, 0xb7, 0x4d, 0xbd, 0xf9, 0x48, 0x01, 0x3e,
    0x20, 0x5b, 0x5e, 0x3c, 0x25, 0x40, 0x83, 0xbc, 0xdc, 0x86, 0x1f, 0x3d,
    0x3a, 0x13, 0x84, 0x3d, 0x20, 0x5f, 0xe8, 0x3b, 0x9a, 0x5b, 0x84, 0x3d,
    0xcc, 0x15, 0x2e, 0x3d, 0x46, 0x03, 0x65, 0xbd, 0x18, 0x92, 0x19, 0x3d,
    0xc8, 0x25, 0xc3, 0x3c, 0x79, 0xc2, 0x97, 0xbd, 0x36, 0x5a, 0x9a, 0xbd,
    0x7a, 0x3e, 0xce, 0x3d, 0xf6, 0x70, 0x8c, 0xbd, 0x8c, 0x46, 0x42, 0xbd,
    0x0c, 0xc4, 0xdf, 0xbc, 0x6c, 0x8f, 0xe1, 0xbd, 0x9e, 0xb2, 0x88, 0xbd,
    0xd0, 0x40, 0x1c, 0x3d, 0xb4, 0x90, 0xc5, 0x3d, 0x20, 0x4d, 0x3c, 0x3d,
    0x79, 0xc3, 0x62, 0xbb, 0xa2, 0xf2, 0x05, 0xbe, 0xf8, 0x40, 0x63, 0x3d,
    0xd8, 0x7a, 0x17, 0x3d, 0x80, 0x31, 0x76, 0xbc, 0x54, 0xb7, 0xd4, 0xbd,
    0xf7, 0x1c, 0x65, 0xbd, 0xb5, 0xf2, 0x13, 0xbe, 0x9f, 0xfa, 0x01, 0xbe,
    0x28, 0xbe, 0xc8, 0x3d, 0x9c, 0xee, 0xb7, 0xbd, 0x3c, 0x41, 0xad, 0xbc,
    0xbf, 0x5f, 0xa8, 0xbd, 0x0e, 0x26, 0xda, 0xbc, 0xcc, 0x89, 0x93, 0xbd,
    0xbb, 0x29, 0xe3, 0x3d, 0xb1, 0x24, 0xdd, 0xbc, 0x90, 0xce, 0xde, 0x3c,
    0x80, 0x6b, 0x68, 0x3d, 0x42, 0x44, 0x0b, 0xbe, 0xe3, 0x37, 0x08, 0x3e,
    0x1c, 0x78, 0xb2, 0xbd, 0xbe, 0x0d, 0xf2, 0xbd, 0xbb, 0x33, 0x9b, 0x3d,
    0xee, 0x0d, 0x60, 0xbd, 0xba, 0x73, 0x83, 0xbc, 0xe9, 0x7f, 0x8f, 0x3d,
    0xae, 0x68, 0x54, 0xbd, 0x13, 0x3f, 0xaf, 0xbd, 0x9e, 0x0c, 0x14, 0x3e,
    0x0d, 0x77, 0xf6, 0x3d, 0xd4, 0x1d, 0xcd, 0xbd, 0x5c, 0x3f, 0x6d, 0xbd,
    0xaf, 0xe9, 0x46, 0x3c, 0x87, 0x12, 0x55, 0xbd, 0xe3, 0xfc, 0xed, 0x3c,
    0x02, 0x94, 0xe0, 0x3d, 0x0d, 0xc3, 0x24, 0xbd, 0xb4, 0xb6, 0xd7, 0x3c,
    0x3e, 0x4e, 0xb0, 0x3d, 0xe4, 0x9b, 0x84, 0xbc, 0x3b, 0x15, 0x23, 0x3d,
    0x85, 0xc2, 0x04, 0x3e, 0xff, 0xd7, 0xed, 0xbd, 0x44, 0xe1, 0xfd, 0xbc,
    0xda, 0xe4, 0x8a, 0xbd, 0x78, 0x0d, 0x62, 0x3d, 0x3c, 0x72, 0x09, 0xbe,
    0x90, 0x89, 0x24, 0xbd, 0x39, 0x24, 0x83, 0xbd, 0x21, 0xc1, 0xa6, 0xbc,
    0xab, 0x31, 0x00, 0xbe, 0xc7, 0xd1, 0xb3, 0x3d, 0x67, 0xca, 0xa7, 0x3d,
    0x76, 0x7c, 0x40, 0xbd, 0x49, 0xcf, 0x87, 0x3c, 0x4e, 0x8e, 0x5f, 0x3d,
    0xdf, 0x63, 0x0d, 0x3b, 0xf1, 0x52, 0x0c, 0x3e, 0xc5, 0x47, 0x0b, 0xbe,
    0x58, 0x0d, 0x47, 0x3c, 0xab, 0xed, 0xb6, 0x3d, 0x5a, 0x5c, 0x57, 0x3d,
    0x00, 0x24, 0xb3, 0xb9, 0xe5, 0xe4, 0x41, 0xbd, 0x29, 0x2a, 0x29, 0x3d,
    0x4d, 0x35, 0xf9, 0xbc, 0x75, 0x48, 0x87, 0x3d, 0x30, 0x1a, 0x0f, 0x3e,
    0xd7, 0x64, 0xc7, 0x3d, 0xed, 0x09, 0x97, 0xbd, 0xcc, 0x42, 0x9e, 0x3d,
    0x12, 0xdb, 0x36, 0xbc, 0x50, 0xb1, 0x79, 0x3c, 0x56, 0x18, 0xfd, 0x3d,
    0xb3, 0x82, 0x41, 0x3d, 0x99, 0xa6, 0xfc, 0xbd, 0x62, 0xce, 0x08, 0x3a,
    0xc8, 0xe9, 0x57, 0xbd, 0xae, 0xa5, 0xfe, 0x3d, 0x65, 0x1e, 0x5f, 0xbd,
    0x55, 0xf2, 0xee, 0x3d, 0xe3, 0x9b, 0x7c, 0xbd, 0xf5, 0xc7, 0xb7, 0xbd,
    0xd4, 0x92, 0xc5, 0x3d, 0xbb, 0x7f, 0xf8, 0x3d, 0x19, 0xa7, 0xdb, 0x3d,
    0xc7, 0x1c, 0xc0, 0x3d, 0x0f, 0x5f, 0xae, 0x3d, 0x88, 0x0a, 0xe2, 0xbc,
    0xa4, 0x17, 0x02, 0xbc, 0xef, 0x51, 0xda, 0xbd, 0xd5, 0x68, 0xf6, 0xbc,
    0xdf, 0xce, 0x0d, 0xbc, 0x68, 0x09, 0xe0, 0x3d, 0x45, 0x80, 0xd1, 0xbd,
    0x10, 0xc3, 0xd0, 0xbd, 0xd8, 0xcf, 0xb6, 0xbd, 0x10, 0x1d, 0x95, 0xbd,
    0xca, 0xa5, 0x6f, 0x3d, 0x73, 0x10, 0x43, 0xbb, 0x7b, 0xf5, 0xb4, 0xbd,
    0x4f, 0xd0, 0x6a, 0xbd, 0x6f, 0xb4, 0xc9, 0x3b, 0xa4, 0x77, 0xf5, 0xbd,
    0x55, 0xf7, 0xca, 0xbd, 0x99, 0x18, 0x05, 0x3e, 0x6f, 0xe0, 0xad, 0x3d,
    0x10, 0x0d, 0x9b, 0x3d, 0x8b, 0xef, 0x68, 0xbc, 0x74, 0xad, 0x2d, 0xbd,
    0x79, 0x9b, 0x68, 0xbd, 0x8a, 0x67, 0xaa, 0x3d, 0x76, 0x65, 0x12, 0xbd,
    0x88, 0xb6, 0x14, 0x3e, 0x15, 0x63, 0xe5, 0xbb, 0x5d, 0x28, 0x8c, 0xbc,
    0x60, 0x1b, 0xfe, 0xbd, 0x99, 0x14, 0xba, 0x3d, 0xab, 0xfb, 0xf5, 0x3d,
    0x78, 0x8a, 0xe1, 0x3d, 0x0a, 0x69, 0x60, 0xbd, 0x0b, 0x59, 0x0f, 0xbe,
    0xf7, 0xbd, 0xd2, 0x3c, 0x36, 0xf8, 0xd0, 0xbc, 0x72, 0xc2, 0x0f, 0xbe,
    0xfd, 0x14, 0x7f, 0x3d, 0x88, 0xa4, 0x56, 0x3d, 0xe4, 0x90, 0x8d, 0x3d,
    0x2d, 0x05, 0xac, 0x3d, 0x8b, 0x0e, 0x6c, 0x3d, 0x2f, 0xb0, 0xc6, 0xbc,
    0x4c, 0x65, 0xcc, 0xbd, 0xfb, 0x37, 0xd1, 0xba, 0x6a, 0x2b, 0x1e, 0xbe,
    0x61, 0x42, 0x09, 0x3e, 0xe9, 0x84, 0xf2, 0xbd, 0x27, 0xbf, 0x05, 0x3e,
    0x48, 0xf6, 0x1f, 0x3d, 0xe5, 0x54, 0x07, 0x3e, 0x77, 0xd1, 0x0e, 0xbd,
    0x3c, 0x02, 0x9d, 0xbd, 0xc8, 0x5f, 0x7c, 0x3d, 0x50, 0x5b, 0x3b, 0x3c,
    0xfa, 0xa4, 0x09, 0xbe, 0x44, 0xf7, 0x4b, 0x3d, 0x93, 0xe2, 0xe5, 0xbd,
    0x44, 0x55, 0x8d, 0x3d, 0x5b, 0xcf, 0x07, 0xbe, 0xb8, 0xec, 0x2c, 0x3d,
    0x7c, 0x39, 0x49, 0x3d, 0x26, 0xe8, 0xb4, 0xbd, 0xe1, 0x33, 0xba, 0xbd,
    0x8c, 0xff, 0x3b, 0x3e, 0x81, 0x0e, 0x09, 0x3d, 0x18, 0xf5, 0x78, 0x3d,
    0xe6, 0x94, 0xe8, 0x3d, 0x5a, 0x3c, 0xe7, 0x3d, 0x9f, 0x96, 0x18, 0xbe,
    0xa7, 0xbf, 0x12, 0xbe, 0x4c, 0x89, 0x72, 0x3d, 0x74, 0xc6, 0x20, 0x3d,
    0xf6, 0x75, 0xfe, 0xbd, 0x70, 0x55, 0x42, 0x3c, 0x62, 0x25, 0xec, 0x3d,
    0x70, 0x73, 0xed, 0xbd, 0x38, 0x37, 0xb6, 0xbc, 0x61, 0x03, 0x0e, 0x3e,
    0xe3, 0x7c, 0x02, 0x3e, 0x17, 0x5d, 0xa5, 0xbc, 0x60, 0x66, 0x20, 0xbc,
    0xdc, 0x14, 0xca, 0x3d, 0xb0, 0x7d, 0x95, 0xbc, 0x9a, 0x63, 0x09, 0xbd,
    0x80, 0x76, 0xe8, 0x3c, 0x3b, 0x13, 0x0d, 0xbe, 0x00, 0xd9, 0x1f, 0x3a,
    0xb7, 0x69, 0x10, 0xbe, 0x55, 0x39, 0xd3, 0x3d, 0xc2, 0xcb, 0xf0, 0xbc,
    0xc1, 0xc0, 0x1b, 0x3e, 0xf4, 0x4e, 0x8a, 0xbd, 0x16, 0xd7, 0x8a, 0xbd,
    0x9c, 0x2c, 0xfb, 0xbc, 0xb6, 0x8a, 0x2c, 0xbd, 0x40, 0x1d, 0x85, 0xbb,
    0x08, 0x44, 0x35, 0x3d, 0xea, 0x92, 0x68, 0xbd, 0x49, 0x00, 0xa1, 0xbd,
    0xa0, 0x67, 0xef, 0xbb, 0xa4, 0xae, 0x20, 0x3d, 0xc5, 0x8a, 0x1d, 0x3e,
    0x9c, 0xe3, 0x88, 0x3d, 0x70, 0x26, 0x88, 0xbc, 0x90, 0xb8, 0x72, 0xbd,
    0x1a, 0x31, 0xbe, 0xbd, 0x1a, 0x31, 0xea, 0x3d, 0xdd, 0x9a, 0x8d, 0xbd,
    0xad, 0xfe, 0xa0, 0xbc, 0x1a, 0x2a, 0xf5, 0x3d, 0xc2, 0x90, 0xf7, 0x3d,
    0xaa, 0xa0, 0xf2, 0x3d, 0xe8, 0xf1, 0x7b, 0xbd, 0x6e, 0x2f, 0xc1, 0x3d,
    0x0a, 0xec, 0x23, 0xbd, 0xa5, 0xa8, 0x0a, 0xbe, 0x10, 0xb0, 0x8b, 0xbd,
    0x84, 0x45, 0x02, 0xbd, 0xda, 0xa6, 0x8f, 0x3d, 0x40, 0xb2, 0x77, 0x3c,
    0x20, 0xf5, 0x1c, 0xbc, 0x18, 0x7b, 0x9c, 0xbc, 0x70, 0xf0, 0xb6, 0x3d,
    0x7a, 0x8d, 0xbd, 0x3c, 0xe0, 0xcd, 0xae, 0xbc, 0x1c, 0xfd, 0x88, 0xbd,
    0xa0, 0xf2, 0x26, 0x3d, 0xe4, 0x64, 0x15, 0xbd, 0x22, 0x67, 0xca, 0xbd,
    0x4d, 0x76, 0x94, 0xbd, 0x58, 0xed, 0xd0, 0x3d, 0x87, 0x4f, 0x97, 0xbd,
    0xb0, 0x18, 0x8c, 0xbd, 0xb0, 0x2c, 0xbc, 0x3c, 0xec, 0x4e, 0x9d, 0x3d,
    0x0c, 0x75, 0x80, 0xbd, 0x1c, 0x23, 0x72, 0xbd, 0x80, 0x22, 0x65, 0x3c,
    0x70, 0x1c, 0x58, 0xbc, 0x8a, 0x3d, 0x8a, 0x3d, 0x8e, 0x50, 0x0a, 0xbe,
    0x00, 0x3d, 0xde, 0x3b, 0x30, 0x26, 0x81, 0x3c, 0x10, 0x4c, 0x71, 0x3d,
    0x36, 0xa5, 0xe1, 0x3d, 0xe0, 0x89, 0x09, 0xbe, 0xde, 0x8f, 0xe8, 0x3d,
    0x31, 0x02, 0xa1, 0xbd, 0xf0, 0xc7, 0xa6, 0x3d, 0xe0, 0xa9, 0x22, 0xbc,
    0xe0, 0x2e, 0x79, 0x3d, 0x0d, 0xac, 0x37, 0xbc, 0x80, 0xb8, 0x7f, 0xbc,
    0x48, 0x1e, 0x68, 0xbd, 0x94, 0x0a, 0xca, 0x3d, 0x5c, 0x4c, 0x31, 0x3d,
    0xbe, 0x72, 0x26, 0xbd, 0xe0, 0xb2, 0x7f, 0xbc, 0x90, 0x59, 0x38, 0xbd,
    0x34, 0x17, 0x61, 0x3d, 0xb0, 0xc2, 0x05, 0xbe, 0xdc, 0x40, 0xa6, 0x3d,
    0x80, 0x49, 0xd2, 0x3a, 0x79, 0x03, 0xa6, 0xbd, 0xf2, 0x06, 0x82, 0xbd,
    0x68, 0x1e, 0x9d, 0x3d, 0xb1, 0xf2, 0x0e, 0x3e, 0x66, 0xe7, 0xf4, 0x3d,
    0x4f, 0xe9, 0x0b, 0x3e, 0xb9, 0x61, 0x02, 0x3e, 0x12, 0xeb, 0x77, 0xbd,
    0x38, 0xea, 0x0d, 0x3d, 0x10, 0x04, 0xc3, 0x3c, 0xf7, 0x27, 0x52, 0x3d,
    0xa1, 0x13, 0x99, 0x3d, 0xd3, 0xae, 0x65, 0xbd, 0x05, 0x6d, 0x45, 0x3d,
    0x40, 0xb3, 0x9b, 0x3c, 0x56, 0x0d, 0xd7, 0xbd, 0x64, 0xa4, 0x6d, 0xbd,
    0x9c, 0x42, 0xb5, 0xbd, 0xb7, 0x70, 0x22, 0x3c, 0xdd, 0x5b, 0x10, 0xbd,
    0x30, 0x30, 0x90, 0x3d, 0xed, 0x99, 0xea, 0x3d, 0x33, 0x9a, 0xe9, 0x3d,
    0xc0, 0x9b, 0x23, 0xbd, 0xce, 0x7e, 0xbc, 0xbd, 0x89, 0x2d, 0x02, 0x3e,
    0xbe, 0xb8, 0x90, 0xbc, 0x1d, 0xd6, 0xe9, 0x3d, 0x97, 0x05, 0xa6, 0xbd,
    0x80, 0xf6, 0x0c, 0x3d, 0x0d, 0x95, 0xd7, 0x3d, 0xbc, 0xad, 0x7a, 0xbd,
    0xd6, 0x3a, 0xd8, 0xbd, 0x0d, 0xdb, 0x4a, 0xbd, 0x49, 0xb3, 0x29, 0x3d,
    0xc7, 0x9e, 0x5f, 0xbc, 0xd9, 0x4a, 0xed, 0x3d, 0xee, 0xd3, 0x1c, 0xbd,
    0x6d, 0xaf, 0x8d, 0xbd, 0x87, 0xf0, 0xed, 0x3b, 0x0d, 0xeb, 0x57, 0xbd,
    0x2b, 0x4e, 0xcd, 0xbc, 0x76, 0x64, 0x33, 0x3d, 0x97, 0xf3, 0xc3, 0x3d,
    0xb9, 0x9d, 0x07, 0x3e, 0xe6, 0xf2, 0x20, 0x38, 0x3f, 0x66, 0x87, 0x3d,
    0xd3, 0x30, 0x0c, 0x3e, 0x2a, 0xd0, 0xeb, 0xbd, 0x01, 0x41, 0x04, 0x3e,
    0xc8, 0x52, 0x8d, 0xbd, 0x6e, 0x02, 0xf6, 0x3d, 0xcd, 0x8e, 0xe2, 0x3c,
    0xe3, 0x97, 0x22, 0x3d, 0x43, 0x9f, 0xd6, 0xbd, 0x0f, 0x33, 0x77, 0x3d,
    0x1b, 0x87, 0xa1, 0xbd, 0xaf, 0x5f, 0xd0, 0xbb, 0x79, 0x16, 0x8d, 0x3d,
    0x91, 0x90, 0x12, 0x3b, 0x3b, 0x6c, 0x68, 0x3d, 0xf2, 0xc0, 0xc2, 0x3d,
    0x41, 0xc6, 0xb1, 0x3c, 0xf1, 0xe0, 0x07, 0xbd, 0x34, 0xaf, 0xfe, 0x3d,
    0xdf, 0xe4, 0x8d, 0xbd, 0xee, 0x93, 0xfb, 0xbd, 0x29, 0x19, 0x5a, 0x3c,
    0xda, 0x5d, 0x25, 0xba, 0x91, 0xd1, 0xc0, 0x3c, 0x25, 0x2f, 0x70, 0x3c,
    0x3a, 0xa1, 0xf0, 0x3d, 0xa1, 0x19, 0xe7, 0xbd, 0x94, 0x28, 0x10, 0x3d,
    0xa4, 0x81, 0xe6, 0xbc, 0x15, 0x54, 0xf2, 0x3d, 0x6b, 0x52, 0x9e, 0x3d,
    0x6f, 0xf6, 0x5e, 0xbd, 0xad, 0x72, 0x37, 0xbd, 0xee, 0xdf, 0xd1, 0xbd,
    0x68, 0xf6, 0xc3, 0x3d, 0x73, 0xb9, 0xa9, 0xbd, 0xc4, 0x39, 0x68, 0x3d,
    0x7d, 0x20, 0xd4, 0x3d, 0xf4, 0xa2, 0x63, 0x3d, 0xbe, 0xf0, 0x06, 0x3e,
    0x9e, 0x85, 0x9e, 0xbd, 0xc8, 0xed, 0x05, 0x3e, 0xa1, 0xc2, 0x9b, 0x3c,
    0x62, 0xc3, 0x90, 0xbd, 0xce, 0xcc, 0x7a, 0x3b, 0x4e, 0xe1, 0xb9, 0xbc,
    0xe1, 0xdd, 0x4c, 0xbd, 0x38, 0xa2, 0x01, 0x3e, 0xfb, 0x85, 0xb1, 0xbc,
    0x02, 0x15, 0xb9, 0x3b, 0x01, 0xc9, 0x8a, 0x3d, 0xf1, 0x07, 0x4a, 0x3d,
